[PAD]
[UNK]
[CLS]
[SEP]
[MASK]
!
"
#
$
%
'
(
)
*
+
,
-
.
/
0
1
2
3
4
5
6
7
8
9
:
;
=
?
@
A
B
C
D
E
F
G
H
I
J
K
L
M
N
O
P
Q
R
S
T
U
V
W
X
Y
Z
[
\
]
^
_
`
a
b
c
d
e
f
g
h
i
j
k
l
m
n
o
p
q
r
s
t
u
v
w
x
y
z
{
|
}
~
®
·
‼
⁉
⃣
™
ℹ
↔
↗
↘
↙
∼
⏪
▪
▶
◀
☀
☄
☎
☑
☔
☘
☝
☠
☢
☣
☹
☺
♀
♂
♠
♣
♥
♦
♨
⚔
⚖
⚠
⚡
⚫
⚰
⛄
⛏
⛔
⛳
✂
✅
✈
✊
✋
✌
✔
✖
✨
✳
✴
❄
❌
❎
❓
❔
❕
❗
❣
❤
➕
➖
➡
➰
⬅
⬆
⬇
⬛
⭐
⭕
〰
ㄱ
ㄲ
ㄳ
ㄴ
ㄷ
ㄸ
ㄹ
ㄺ
ㄻ
ㅀ
ㅁ
ㅂ
ㅃ
ㅄ
ㅅ
ㅆ
ㅇ
ㅈ
ㅉ
ㅊ
ㅋ
ㅌ
ㅍ
ㅎ
㊗
가
각
갂
갃
간
갆
갇
갈
갉
갋
갏
감
갑
값
갓
갔
강
갖
갗
갘
같
갚
갛
개
객
갠
갢
갣
갤
갬
갭
갮
갯
갰
갱
갲
갴
갵
갷
갸
갹
갼
걀
걈
걉
걌
걍
걑
걔
걘
걩
거
걱
걲
건
걵
걷
걸
검
겁
겂
것
겄
겅
겆
겇
겈
겉
겊
겋
게
겍
겎
겐
겓
겔
겜
겝
겟
겠
겡
겢
겤
겧
겨
격
겪
견
겯
결
겸
겹
겻
겼
경
곀
곁
곂
곃
계
곅
곈
곌
곗
곘
곙
고
곡
곤
곧
골
곪
곬
곯
곰
곱
곳
공
곶
곷
곸
곹
곺
곻
과
곽
관
괁
괂
괄
괌
괏
광
괘
괙
괜
괞
괬
괭
괴
괵
괸
괼
굉
교
굑
굔
굘
굣
굥
구
국
굮
굯
군
굳
굴
굵
굶
굷
굻
굼
굽
굿
궁
궂
궃
궄
궅
궈
궉
권
궍
궐
궘
궙
궛
궜
궝
궤
궨
궸
궹
귀
귁
귄
귈
귐
귓
규
귝
균
귤
귱
그
극
근
귾
귿
글
긁
긂
긇
금
급
긋
긌
긍
긎
긐
긑
긒
긔
긕
긘
긜
긧
기
긱
긴
긷
길
긿
김
깁
깂
깃
깄
깅
깆
깈
깉
깊
깋
까
깍
깎
깐
깔
깜
깝
깞
깟
깠
깡
깢
깤
깥
깦
깧
깨
깩
깬
깰
깸
깹
깻
깼
깽
꺄
꺅
꺌
꺙
꺠
꺵
꺼
꺽
꺾
껀
껄
껌
껍
껏
껐
껑
껒
껔
께
껙
껜
껨
껫
껬
껭
껰
껴
껵
껶
껸
껼
꼅
꼇
꼈
꼉
꼐
꼬
꼭
꼮
꼰
꼳
꼴
꼻
꼼
꼽
꼿
꽁
꽂
꽃
꽄
꽅
꽈
꽉
꽊
꽌
꽐
꽝
꽤
꽥
꽹
꾀
꾁
꾐
꾕
꾜
꾤
꾸
꾹
꾼
꾾
꾿
꿀
꿁
꿂
꿃
꿇
꿈
꿉
꿋
꿍
꿎
꿏
꿑
꿔
꿘
꿜
꿧
꿨
꿩
꿰
꿱
꿴
뀌
뀐
뀔
뀜
뀝
뀠
뀡
뀨
뀬
끄
끅
끈
끊
끋
끌
끍
끓
끔
끕
끗
끘
끙
끚
끛
끝
끠
끤
끼
끽
낀
낂
낃
낄
낌
낍
낏
낑
낔
낗
나
낙
낚
낛
난
낝
낞
낟
날
낡
낧
남
납
낫
났
낭
낮
낯
낰
낱
낲
낳
내
낵
낸
낼
냄
냅
냇
냈
냉
냊
냌
냐
냑
냔
냘
냠
냡
냣
냤
냥
냦
냨
냬
냰
냼
너
넉
넋
넌
넎
널
넑
넒
넓
넖
넗
넘
넙
넚
넛
넜
넝
넠
넢
넣
네
넥
넨
넫
넬
넴
넵
넷
넸
넹
넺
넼
넽
넿
녀
녁
녂
년
녅
녆
녈
념
녓
녔
녕
녘
녛
녜
녠
녤
녴
노
녹
논
녾
녿
놀
놁
놈
놉
놋
놌
농
놐
높
놓
놔
놘
놜
놧
놨
놬
놯
놰
뇀
뇌
뇐
뇜
뇟
뇠
뇨
뇬
뇰
뇸
뇽
누
눅
눈
눌
눍
눔
눕
눗
눙
눜
눞
눟
눠
눤
눨
눰
눴
눼
뉍
뉘
뉜
뉠
뉨
뉩
뉴
뉸
뉼
늄
늉
느
늑
는
늕
늗
늘
늙
늟
늠
늡
늣
능
늦
늧
늨
늩
늪
늫
늬
늰
늼
니
닉
닊
닌
닏
닐
님
닙
닚
닛
닜
닝
닞
닟
닠
닢
닣
다
닥
닦
단
닪
닫
달
닭
닮
닯
닳
담
답
닶
닷
닸
당
닺
닻
닼
닽
닾
닿
대
댁
댄
댇
댈
댐
댑
댓
댔
댕
댖
댗
댘
댙
댛
댜
댠
댤
댭
댯
댱
댸
덋
더
덕
던
덛
덜
덟
덤
덥
덧
덨
덩
덪
덫
덮
덯
데
덱
덴
덷
델
뎀
뎁
뎃
뎄
뎅
뎆
뎈
뎌
뎐
뎔
뎜
뎟
뎠
뎡
뎨
도
독
돈
돋
돌
돔
돕
돗
동
돚
돛
돜
돝
돞
돟
돠
돤
돨
돰
돱
돳
돴
돵
돼
됀
됄
됌
됍
됏
됐
됑
됒
됗
되
됙
된
될
됨
됩
됫
됬
됭
됮
됴
됵
됸
됻
됼
둇
둉
두
둑
둔
둗
둘
둟
둠
둡
둣
둥
둬
둰
둿
뒀
뒈
뒛
뒝
뒤
뒨
뒬
뒷
뒸
뒹
뒺
듀
듁
듄
듈
듐
듕
드
득
든
듡
듣
들
듥
듦
듧
듨
듩
듪
듫
듬
듭
듯
등
듲
듳
듴
듵
듷
듸
듼
딀
딋
딍
디
딕
딘
딛
딜
딝
딤
딥
딧
딨
딩
딪
딫
딬
딮
따
딱
딲
딴
딷
딸
딹
땀
땁
땃
땄
땅
땈
땋
때
땍
땐
땔
땜
땝
땟
땠
땡
땨
땩
땬
땰
땸
땽
떄
떈
떔
떙
떠
떡
떢
떤
떧
떨
떫
떯
떰
떱
떳
떴
떵
떻
떼
떽
뗀
뗄
뗌
뗍
뗏
뗐
뗑
뗔
뗗
뗘
뗜
뗠
뗳
뗴
또
똑
똒
똔
똗
똘
똟
똠
똣
똥
똫
똬
똭
똴
뙇
뙈
뙤
뙨
뚀
뚕
뚜
뚝
뚠
뚣
뚤
뚫
뚯
뚱
뚷
뚸
뛔
뛧
뛰
뛴
뛸
뜀
뜁
뜌
뜡
뜨
뜩
뜬
뜯
뜰
뜷
뜸
뜹
뜻
뜽
뜾
띁
띄
띈
띌
띔
띠
띡
띤
띨
띰
띱
띵
라
락
란
랂
랃
랄
랋
람
랍
랏
랐
랑
랒
랓
랔
랕
랖
랗
래
랙
랜
랟
랠
램
랩
랫
랬
랭
랰
랲
랳
랴
략
랸
랼
럄
럇
럈
량
럐
럤
러
럭
런
럱
럲
럴
럼
럽
럾
럿
렀
렁
렂
렄
렆
렇
레
렉
렌
렐
렘
렙
렛
렜
렝
렠
렣
려
력
련
렫
렬
렴
렵
렷
렸
령
렺
렼
렿
례
롁
롄
롐
롓
롕
로
록
론
롣
롤
롬
롭
롯
롱
롲
롳
롴
롶
롷
롸
롹
롼
뢀
뢈
뢉
뢍
뢐
뢔
뢰
뢱
뢴
룁
료
룍
룐
룔
룜
룟
룡
루
룩
룬
룰
룸
룹
룻
룽
뤂
뤄
뤈
뤌
뤗
뤘
뤠
뤡
뤼
륀
륄
륍
류
륙
륜
률
륨
륭
르
륵
른
륻
를
릂
름
릅
릇
릉
릊
릌
릍
릎
릏
릐
릔
릫
리
릭
린
릳
릴
림
립
릿
맀
링
맂
맄
맆
맇
마
막
맊
만
맍
많
맏
말
맑
맔
맗
맘
맙
맛
맜
망
맞
맟
맠
맡
맢
맣
매
맥
맨
맬
맴
맵
맷
맸
맹
맺
맻
맼
맽
먀
먁
먄
먆
먈
먕
먖
먗
먜
머
먹
먺
먼
먽
먾
먿
멀
멈
멉
멊
멋
멌
멍
멎
멏
멐
멓
메
멕
멘
멜
멤
멧
멨
멩
며
멱
면
멵
멸
몀
몃
몄
명
몆
몇
몈
몋
몌
몐
몡
몣
모
목
몪
몫
몬
몯
몰
몱
몴
몸
몹
못
몼
몽
몾
몿
뫃
뫄
뫈
뫌
뫙
뫠
뫼
묏
묘
묙
묜
묠
묫
묭
무
묵
묶
묷
문
묹
묻
물
묽
뭄
뭅
뭇
뭉
뭊
뭌
뭍
뭏
뭐
뭑
뭔
뭘
뭠
뭡
뭣
뭤
뭥
뭨
뭫
뭬
뭰
뮈
뮌
뮐
뮙
뮛
뮝
뮤
뮥
뮨
뮬
뮴
뮷
뮹
므
믁
믄
믇
믈
믐
믓
믕
믜
믠
미
믹
민
믽
믾
믿
밀
밈
밉
밋
밌
밍
밎
및
밐
밑
밓
바
박
밖
반
받
발
밝
밞
밟
밠
밢
밣
밤
밥
밦
밧
밨
방
밪
밫
밬
밭
밮
밯
배
백
밴
밷
밸
뱀
뱁
뱃
뱄
뱅
뱆
뱉
뱌
뱍
뱐
뱓
뱔
뱜
뱝
뱡
뱨
뱸
뱽
버
벅
벆
번
벋
벌
벍
벓
범
법
벗
벙
벚
벛
벝
벞
베
벡
벤
벧
벨
벰
벱
벳
벴
벵
벸
벹
벼
벽
변
별
볌
볍
볏
볐
병
볓
볔
볕
볗
볘
볜
볭
보
복
볶
본
볻
볼
볾
봄
봅
봇
봉
봊
봌
봍
봏
봐
봑
봔
봗
봘
봟
봡
봣
봤
봥
봨
봫
봬
뵀
뵁
뵈
뵌
뵐
뵙
뵜
뵤
뵨
뵵
뵹
부
북
붂
붃
분
붇
불
붉
붋
붏
붐
붑
붓
붕
붖
붘
붙
붚
붛
붜
붠
붤
붱
붸
붹
뷀
뷁
뷍
뷔
뷘
뷩
뷰
뷱
뷴
뷸
븀
븁
븅
븉
브
븍
븐
블
븜
븝
븟
븡
븥
븨
븩
븬
븰
븹
븽
비
빅
빆
빈
빋
빌
빍
빔
빕
빗
빙
빚
빛
빝
빟
빠
빡
빢
빤
빧
빨
빩
빬
빯
빰
빱
빳
빴
빵
빸
빻
빼
빽
뺀
뺃
뺄
뺌
뺍
뺏
뺐
뺑
뺒
뺕
뺘
뺙
뺜
뺠
뺨
뺭
뺴
뺵
뺸
뻇
뻈
뻉
뻐
뻑
뻔
뻗
뻘
뻠
뻡
뻣
뻤
뻥
뻩
뻬
뻭
뻰
뻴
뻿
뼁
뼈
뼉
뼌
뼘
뼛
뼜
뼝
뼤
뽀
뽁
뽂
뽄
뽈
뽐
뽑
뽕
뽚
뽜
뽝
뽤
뽱
뾰
뿅
뿌
뿍
뿐
뿔
뿕
뿜
뿝
뿟
뿡
쀄
쀍
쀼
쁀
쁑
쁘
쁜
쁠
쁨
쁩
삐
삑
삔
삘
삣
삤
삥
사
삭
삮
삯
산
삲
삳
살
삵
삶
삷
삻
삼
삽
삿
샀
상
샂
샄
샅
샆
샇
새
색
샊
샋
샌
샎
샏
샐
샑
샕
샘
샙
샛
샜
생
샞
샠
샡
샣
샤
샥
샨
샬
샴
샵
샷
샸
샹
샼
샾
섀
섁
섂
섄
섕
섘
서
석
섞
선
섡
섣
설
섥
섬
섭
섮
섯
섰
성
섲
섴
섵
섶
섷
세
섹
섺
섻
센
섿
셀
셈
셉
셋
셌
셍
셐
셑
셓
셔
셕
션
셜
셤
셥
셧
셨
셩
셯
셰
셱
셲
셴
셸
솄
솅
솈
소
속
솎
손
솓
솔
솜
솝
솟
송
솤
솥
솨
솩
솬
솰
솼
솽
쇄
쇅
쇆
쇗
쇙
쇜
쇠
쇡
쇤
쇳
쇼
쇽
숀
숄
숍
숏
숑
숖
수
숙
순
숟
술
숨
숩
숫
숭
숮
숯
숰
숱
숲
숳
숴
숵
숸
숼
쉅
쉈
쉉
쉌
쉐
쉑
쉒
쉓
쉔
쉘
쉙
쉡
쉣
쉥
쉨
쉬
쉭
쉰
쉴
쉼
쉽
쉿
슁
슄
슆
슈
슉
슌
슐
슘
슙
슛
슝
스
슥
슨
슬
슭
슴
습
슷
승
슺
슼
슾
슿
싀
싁
싄
싈
싑
싕
시
식
싞
신
싡
싢
싣
실
싥
싦
싨
싪
싫
심
십
싮
싯
싰
싱
싲
싳
싴
싵
싶
싷
싸
싹
싺
싼
쌀
쌂
쌈
쌉
쌋
쌌
쌍
쌓
쌔
쌕
쌖
쌘
쌜
쌤
쌥
쌧
쌨
쌩
쌬
쌰
쌱
쌴
썁
썅
썌
썡
써
썩
썪
썬
썰
썸
썹
썻
썼
썽
쎀
쎃
쎄
쎅
쎆
쎈
쎌
쎔
쎕
쎗
쎘
쎙
쎜
쎠
쎡
쎤
쎴
쎵
쎼
쎾
쏀
쏘
쏙
쏜
쏟
쏠
쏨
쏩
쏫
쏭
쏱
쏳
쏴
쏵
쏼
쐇
쐈
쐉
쐐
쐑
쐨
쐬
쐭
쐰
쐴
쐽
쑈
쑝
쑤
쑥
쑨
쑬
쑴
쑵
쑹
쒀
쒔
쒜
쒝
쒞
쒯
쒰
쒴
쒸
쒹
쒼
쓉
쓒
쓔
쓤
쓥
쓩
쓰
쓱
쓴
쓸
씀
씁
씃
씅
씉
씌
씐
씝
씞
씦
씨
씩
씪
씬
씯
씰
씳
씸
씹
씺
씻
씼
씽
씾
앀
앂
앃
아
악
앆
안
앉
않
앋
알
앍
앎
앏
앐
앓
암
압
앖
앗
았
앙
앚
앛
앜
앝
앞
앟
애
액
앢
앤
앨
앰
앱
앲
앳
앴
앵
앸
야
약
얀
얂
얃
얄
얇
얊
얌
얍
얏
얐
양
얒
얔
얕
얖
얗
얘
얙
얜
얠
얨
얫
얭
어
억
얶
얷
언
얹
얺
얻
얼
얽
얾
엃
엄
업
없
엇
었
엉
엊
엌
엍
엎
엏
에
엑
엔
엗
엘
엠
엡
엢
엣
엤
엥
엦
엨
엪
여
역
엮
엯
연
엳
열
엷
염
엽
엾
엿
였
영
옂
옃
옄
옅
옆
옇
예
옉
옌
옐
옘
옙
옛
옜
옝
오
옥
온
옪
옫
올
옭
옮
옯
옰
옳
옴
옵
옶
옷
옸
옹
옺
옻
옼
옽
옿
와
왁
완
왈
왐
왑
왓
왔
왕
왘
왚
왛
왜
왝
왠
왤
왰
왱
왴
외
왹
왼
욀
욋
욌
욍
요
욕
욘
욛
욜
욤
욥
욧
욨
용
욪
욬
욮
욯
우
욱
운
욷
울
욹
욺
욿
움
웁
웂
웃
웄
웅
웆
웈
워
웍
원
웑
웓
월
웛
웜
웝
웟
웠
웡
웤
웧
웨
웩
웬
웰
웸
웹
웽
윀
위
윅
윈
윌
윔
윕
윗
윘
윙
유
육
윤
율
윰
윱
윳
융
윷
윸
으
윽
윾
은
읁
읂
읃
을
읅
읆
읇
읉
읊
읋
음
읍
읎
읏
읐
응
읒
읔
읕
읖
읗
의
읙
읜
읠
읨
읫
읭
읮
읰
이
익
읶
인
읹
읺
읻
일
읽
읾
읿
잀
잂
잃
임
입
잆
잇
있
잉
잊
잋
잌
잍
잎
잏
자
작
잔
잕
잖
잗
잘
잚
잛
잟
잠
잡
잢
잣
잤
장
잦
잧
잨
잩
잪
잫
재
잭
잰
잴
잼
잽
잿
쟀
쟁
쟂
쟈
쟉
쟌
쟎
쟐
쟙
쟛
쟜
쟝
쟞
쟤
쟨
쟬
쟹
저
적
전
젅
젆
젇
절
젉
젊
젋
젎
젏
점
접
젓
젔
정
젖
젗
젘
젙
젛
제
젝
젠
젤
젬
젭
젯
젰
젱
젲
젴
져
젹
젼
젿
졀
졈
졉
졋
졌
졍
졎
졐
졑
졓
졔
졘
조
족
졲
졳
존
졵
졷
졸
졻
좀
좁
좂
좃
좄
종
좆
좇
좈
좉
좊
좋
좌
좍
좐
좔
좝
좟
좠
좡
좢
좦
좨
좸
좽
죄
죅
죈
죌
죕
죗
죙
죠
죡
죤
죧
죨
죰
죱
죳
죴
죵
죷
죸
죹
죻
주
죽
준
줃
줄
줌
줍
줏
중
줒
줓
줔
줕
줗
줘
줙
줜
줟
줠
줩
줫
줬
줭
줮
줯
줱
줳
줴
줸
쥐
쥑
쥔
쥘
쥡
쥣
쥤
쥥
쥬
쥭
쥰
쥴
쥼
쥽
쥿
즁
즂
즈
즉
즌
즐
즘
즙
즛
증
즞
즣
즤
즥
즨
즬
즹
지
직
진
짅
짆
짇
질
짊
짋
짏
짐
집
짒
짓
짔
징
짖
짗
짘
짙
짚
짛
짜
짝
짞
짠
짢
짤
짦
짧
짪
짬
짭
짯
짰
짱
짲
짴
째
짹
짼
쨀
쨈
쨉
쨋
쨌
쨍
쨎
쨓
쨔
쨕
쨘
쨜
쨥
쨩
쨰
쩄
쩌
쩍
쩐
쩔
쩜
쩝
쩟
쩠
쩡
쩢
쩦
쩧
쩨
쪄
쪅
쪈
쪌
쪔
쪕
쪗
쪘
쪙
쪚
쪼
쪽
쪾
쫀
쫃
쫄
쫌
쫍
쫏
쫐
쫑
쫒
쫓
쫔
쫗
쫘
쫙
쫩
쫭
쫴
쬐
쬑
쬠
쬬
쬭
쬽
쭀
쭁
쭈
쭉
쭌
쭐
쭘
쭙
쭛
쭝
쭤
쭥
쭵
쮜
쮝
쮠
쮸
쮹
쯉
쯍
쯔
쯕
쯘
쯜
쯤
쯥
쯧
쯨
쯩
쯪
쯫
쯰
찌
찍
찎
찐
찓
찔
찜
찝
찟
찡
찢
찣
찧
차
착
찬
찮
찯
찰
찷
참
찹
찻
찼
창
찾
찿
챀
챃
채
책
챈
챌
챔
챕
챗
챘
챙
챠
챡
챤
챦
챨
챰
챱
챴
챵
챽
처
척
천
첝
철
첨
첩
첫
첬
청
첮
첯
체
첵
첸
첼
쳇
쳉
쳌
쳐
쳑
쳔
쳘
쳠
쳡
쳣
쳤
쳥
쳦
쳧
쳫
쳬
초
촉
촌
촐
촘
촙
촛
총
촞
촟
촣
촤
촥
촨
촬
촴
촵
촹
쵀
최
쵝
쵤
쵸
쵼
춈
춋
춍
추
축
춘
출
춣
춤
춥
춧
충
춯
춰
춴
췁
췃
췄
췅
췌
췐
췡
취
췬
췼
췽
츄
츅
츈
츌
츙
츠
측
츤
츨
츰
츱
츳
층
츼
칀
칑
치
칙
친
칞
칠
칡
침
칩
칫
칬
칭
칮
칰
카
칵
칸
칼
캄
캅
캇
캈
캉
캌
캍
캐
캑
캔
캘
캠
캡
캣
캤
캥
캪
캬
캭
컄
컈
커
컥
컨
컫
컬
컴
컵
컷
컸
컹
컼
컽
케
켁
켄
켈
켐
켑
켓
켔
켕
켘
켙
켜
켝
켠
켤
켬
켭
켯
켰
켱
켷
켸
코
콕
콘
콜
콤
콥
콧
콩
콬
콰
콱
콴
콸
쾅
쾈
쾌
쾍
쾐
쾡
쾨
쿄
쿠
쿡
쿤
쿨
쿰
쿱
쿵
쿸
쿼
퀀
퀄
퀘
퀙
퀭
퀴
퀵
퀸
퀼
큉
큐
큘
큨
크
큭
큰
클
큼
큽
큿
킁
킄
킅
킈
킝
키
킥
킨
킬
킴
킵
킷
킹
킼
타
탁
탄
탈
탉
탐
탑
탓
탔
탕
탙
태
택
탠
탤
탬
탭
탯
탰
탱
탸
탹
탼
턀
턍
턔
터
턱
턴
털
텀
텁
텃
텄
텅
텋
테
텍
텐
텔
템
텝
텟
텡
텨
텬
텰
텻
텼
텽
톄
톈
토
톡
톤
톨
톰
톱
톳
통
톻
톼
퇀
퇄
퇘
퇫
퇬
퇴
퇸
퇼
툇
툐
툥
투
툭
툰
툴
툼
툽
퉁
퉈
퉛
퉜
퉤
퉥
퉵
퉷
퉸
튀
튄
튈
튐
튑
튓
튕
튜
튠
튤
튬
튭
튱
트
특
튼
튿
틀
틁
틅
틈
틉
틋
틍
틐
틑
틔
티
틱
틴
틸
팀
팁
팃
팅
파
팍
팎
판
팓
팔
팛
팜
팝
팟
팠
팡
팢
팤
팥
팦
패
팩
팬
팰
팸
팹
팻
팼
팽
퍀
퍄
퍅
퍈
퍌
퍙
퍠
퍼
퍽
펀
펄
펌
펍
펏
펐
펑
페
펙
펜
펠
펨
펩
펫
펭
펴
펵
편
펼
폄
폅
폇
폈
평
폐
폑
폔
폠
폥
포
폭
폰
폴
폼
폽
폿
퐁
퐈
퐉
퐌
퐐
퐝
푀
표
푝
푠
푤
푯
푱
푸
푹
푼
풀
품
풉
풋
풍
풒
풓
풔
풜
풰
퓌
퓡
퓨
퓰
퓸
퓹
퓽
프
픈
플
픔
픕
픗
픙
픠
픵
피
픽
핀
필
핌
핍
핏
핑
핓
하
학
한
핝
핞
핟
할
핡
핢
핣
핤
핥
핦
핧
함
합
핫
핬
항
핮
핰
핱
핲
핳
해
핵
핶
핸
핻
핼
햄
햅
햇
했
행
햊
햋
햌
햏
햐
햑
햔
햘
햛
햝
햟
햠
햡
햣
햤
향
햩
햬
햭
햰
햿
헀
헁
허
헉
헌
헐
험
헙
헛
헜
헝
헠
헣
헤
헥
헨
헬
헴
헷
헸
헹
헿
혀
혁
현
혈
혐
협
혓
혔
형
혜
혝
혠
혤
호
혹
혼
홀
홈
홉
홋
홍
홑
홓
화
확
환
활
홤
홥
홧
홨
황
홬
홯
홰
홱
횃
횄
횅
회
획
횐
횔
횝
횟
횡
효
횬
횽
후
훅
훈
훌
훍
훑
훓
훔
훕
훗
훙
훝
훠
훤
훨
훳
훵
훻
훼
훽
휀
휄
휏
휑
휘
휙
휜
휠
휨
휩
휭
휴
휸
휼
흄
흉
흌
흐
흑
흔
흘
흙
흠
흡
흣
흥
흨
흩
흫
희
흭
흰
흴
흽
힁
히
힉
힌
힐
힘
힙
힛
힜
힝
힣
️
％
🆘
🇦
🇨
🇪
🇬
🇭
🇮
🇯
🇰
🇱
🇳
🇵
🇷
🇸
🇹
🇺
🇼
🌀
🌄
🌈
🌊
🌋
🌍
🌎
🌏
🌑
🌕
🌙
🌚
🌛
🌜
🌝
🌞
🌟
🌧
🌩
🌰
🌱
🌵
🌶
🌷
🌸
🌹
🌺
🌻
🌼
🌽
🌾
🌿
🍀
🍁
🍂
🍃
🍄
🍅
🍆
🍇
🍈
🍉
🍊
🍋
🍌
🍎
🍏
🍑
🍒
🍓
🍔
🍖
🍚
🍝
🍞
🍬
🍭
🍰
🍳
🍴
🍺
🍻
🍼
🍾
🎀
🎁
🎂
🎃
🎄
🎆
🎇
🎈
🎉
🎊
🎋
🎌
🎗
🎙
🎤
🎧
🎬
🎭
🎯
🎴
🎵
🎶
🎷
🎸
🎹
🎺
🎼
🏃
🏅
🏇
🏈
🏓
🏮
🏴
🏻
🏼
🏽
🏾
🏿
🐀
🐁
🐂
🐃
🐄
🐅
🐆
🐇
🐈
🐉
🐍
🐎
🐏
🐑
🐒
🐓
🐔
🐕
🐖
🐗
🐙
🐛
🐜
🐝
🐟
🐣
🐤
🐥
🐦
🐧
🐨
🐩
🐫
🐭
🐮
🐯
🐰
🐱
🐳
🐴
🐵
🐶
🐷
🐸
🐹
🐺
🐻
🐼
🐽
🐾
🐿
👀
👁
👂
👃
👄
👅
👆
👇
👈
👉
👊
👋
👌
👍
👎
👏
👐
👑
👗
👘
👙
👞
👟
👣
👤
👥
👦
👧
👨
👩
👪
👫
👬
👭
👮
👯
👲
👴
👵
👶
👹
👺
👻
👼
👽
👾
👿
💀
💁
💃
💄
💊
💋
💌
💎
💏
💐
💑
💒
💓
💔
💕
💖
💗
💘
💙
💚
💛
💜
💝
💞
💟
💡
💢
💣
💤
💥
💦
💧
💨
💩
💪
💫
💯
💰
💲
💵
💸
📌
📍
📛
📢
📣
📯
📺
🔅
🔆
🔇
🔉
🔊
🔑
🔔
🔕
🔖
🔞
🔥
🔧
🔨
🔪
🔫
🔮
🔲
🔴
🔵
🔷
🔸
🔹
🔺
🔻
🕊
🕖
🕯
🕷
🕺
🖐
🖕
🖤
🗝
🗡
🗣
🗽
🗿
😀
😁
😂
😃
😄
😅
😆
😇
😈
😉
😊
😋
😌
😍
😎
😏
😐
😑
😒
😓
😔
😕
😖
😗
😘
😙
😚
😛
😜
😝
😞
😟
😠
😡
😢
😣
😤
😥
😧
😨
😩
😪
😫
😬
😭
😮
😯
😰
😱
😲
😳
😴
😵
😶
😷
😻
😽
🙂
🙃
🙄
🙅
🙆
🙇
🙈
🙉
🙊
🙋
🙌
🙏
🚀
🚁
🚅
🚑
🚔
🚗
🚢
🚨
🚩
🚫
🚴
🛎
🛑
🤐
🤑
🤒
🤓
🤔
🤕
🤗
🤘
🤚
🤛
🤜
🤝
🤞
🤟
🤠
🤡
🤢
🤣
🤤
🤥
🤦
🤧
🤨
🤩
🤪
🤫
🤬
🤭
🤮
🤯
🤰
🤴
🤷
🤸
🤺
🥀
🥁
🥇
🥊
🥒
🥕
🥖
🥚
🥥
🥰
🥳
🥴
🥵
🥶
🥺
🦀
🦁
🦅
🦆
🦇
🦉
🦊
🦋
🦍
🦜
🦝
🦠
🦮
🦴
🦶
🦺
🦼
🧐
🧟
🧠
🧡
🧢
🧨
🩸
##켜
##줄
##라
##는
##가
##보
##네
##경
##쪼
##거
##방
##군
##이
##료
##들
##다
##법
##적
##으
##카
##터
##졌
##을
##때
##도
##난
##짓
##해
##놓
##고
##느
##정
##돈
##리
##시
##요
##노
##의
##주
##5
##간
##일
##한
##태
##만
##랑
##께
##슬
##러
##바
##쒝
##히
##은
##냥
##탄
##핵
##안
##했
##면
##개
##테
##세
##계
##1
##위
##꾸
##어
##서
##맛
##집
##화
##외
##치
##며
##폭
##행
##당
##할
##꺼
##같
##아
##등
##학
##생
##재
##미
##로
##데
##성
##절
##규
##죄
##싱
##질
##장
##충
##겠
##지
##스
##트
##자
##슥
##사
##격
##까
##수
##쌍
##삶
##에
##감
##귀
##막
##식
##인
##역
##두
##렵
##않
##국
##선
##녔
##음
##쪽
##과
##파
##된
##부
##연
##쳐
##먹
##려
##나
##모
##르
##메
##대
##민
##추
##매
##야
##ㅉ
##즈
##크
##꼴
##통
##냐
##언
##준
##진
##짱
##베
##럽
##ㅋ
##악
##하
##애
##것
##찌
##동
##건
##원
##죠
##비
##마
##약
##벤
##티
##오
##되
##든
##현
##골
##프
##i
##친
##를
##덜
##달
##창
##기
##환
##뽑
##웃
##있
##신
##청
##론
##분
##열
##조
##북
##와
##종
##니
##게
##배
##삐
##운
##전
##났
##었
##술
##유
##출
##없
##업
##무
##못
##점
##넘
##올
##우
##던
##승
##례
##좃
##m
##p
##u
##l
##s
##e
##망
##구
##품
##체
##제
##복
##갱
##땅
##발
##슴
##양
##알
##공
##작
##d
##r
##a
##천
##별
##굴
##몸
##름
##끄
##움
##택
##임
##말
##몀
##새
##퀴
##뢰
##착
##왜
##껄
##쳤
##7
##0
##누
##넹
##소
##교
##명
##였
##결
##문
##날
##드
##런
##님
##중
##확
##늘
##햇
##농
##단
##받
##낼
##텐
##권
##력
##팔
##뿐
##앙
##딱
##곳
##내
##뚜
##맞
##싶
##박
##엿
##짖
##댈
##깐
##금
##표
##몹
##쓸
##압
##레
##입
##셨
##령
##떨
##혈
##ㅎ
##그
##참
##웠
##류
##돼
##변
##호
##갈
##순
##릇
##버
##람
##놈
##힐
##여
##젠
##잘
##울
##린
##옥
##월
##급
##페
##물
##관
##홀
##될
##떻
##불
##뭐
##꺵
##믿
##덥
##희
##낙
##락
##겨
##본
##뉴
##얼
##실
##뽕
##밀
##더
##욱
##워
##앤
##봐
##타
##녀
##긴
##각
##앉
##2
##G
##볼
##래
##쩐
##9
##ㅅ
##ㄲ
##써
##회
##포
##취
##센
##키
##많
##딸
##럴
##놨
##른
##최
##췬
##색
##염
##딩
##엘
##예
##댄
##편
##림
##좌
##찍
##합
##묻
##y
##j
##t
##후
##g
##o
##즌
##란
##독
##브
##상
##됩
##좀
##털
##져
##렷
##잇
##둘
##릴
##필
##줘
##영
##함
##폐
##4
##남
##힌
##돌
##존
##듯
##용
##돋
##뜻
##황
##읗
##삽
##억
##떼
##퍼
##닌
##쩌
##왔
##협
##밝
##혀
##뒤
##팡
##끼
##킹
##판
##탁
##L
##E
##D
##셔
##립
##견
##멀
##산
##🐶
##따
##눈
##설
##녁
##둬
##케
##팅
##투
##쟁
##졸
##싼
##쓰
##살
##싫
##밖
##속
##탓
##겐
##처
##롭
##강
##됬
##튼
##년
##잖
##엔
##얘
##률
##증
##저
##겼
##촌
##층
##평
##흙
##득
##차
##극
##낸
##머
##챙
##육
##쇼
##핑
##광
##목
##손
##I
##M
##F
##힘
##좋
##걸
##몰
##탱
##ㅇ
##밑
##심
##책
##랬
##벌
##겟
##8
##슨
##걱
##ㄹ
##x
##랄
##낭
##습
##찰
##쯤
##녓
##루
##션
##럼
##범
##뎌
##긋
##너
##6
##템
##혐
##O
##멸
##접
##b
##숟
##둥
##똥
##멍
##짝
##혜
##왕
##랍
##찐
##빵
##렸
##폰
##념
##뒀
##넌
##졋
##침
##묵
##좨
##련
##번
##클
##쇄
##즘
##뉘
##잔
##형
##향
##항
##킨
##랙
##험
##밥
##P
##A
##N
##큼
##길
##뻘
##블
##짤
##활
##딴
##글
##틀
##앞
##쥐
##반
##댕
##앳
##괴
##볕
##커
##코
##피
##봤
##셈
##뻔
##V
##송
##튀
##온
##눠
##징
##겄
##채
##릿
##족
##뇨
##릭
##씨
##맨
##값
##병
##빼
##획
##덕
##덩
##꼐
##뎃
##휘
##죽
##눼
##탈
##첫
##근
##댓
##3
##훈
##줬
##횡
##X
##똑
##쁜
##빨
##🔴
##n
##윗
##디
##검
##백
##빌
##ㅂ
##꽉
##둠
##숯
##촛
##갔
##뭉
##욕
##김
##싸
##춘
##밭
##쇠
##줍
##냨
##랔
##ㄱ
##쑈
##빠
##량
##럿
##혼
##잡
##닭
##찬
##꼬
##짜
##플
##납
##낫
##엄
##씩
##뷰
##탕
##콩
##익
##쩔
##몇
##렇
##척
##놀
##끌
##랴
##웅
##았
##녹
##봉
##엽
##총
##랏
##쟎
##팬
##패
##율
##얌
##뇌
##왓
##균
##륙
##쟈
##먼
##붕
##떠
##능
##듣
##틴
##헤
##직
##붙
##냔
##섭
##ㄷ
##혹
##객
##깟
##컬
##뒈
##텨
##뭔
##낌
##축
##믄
##굽
##석
##렬
##낳
##낮
##곤
##톨
##숨
##꿀
##엇
##팽
##읹
##담
##푸
##폔
##ㅈ
##넷
##겁
##철
##풀
##십
##퇘
##특
##찔
##허
##냈
##B
##낀
##엎
##콘
##섹
##멘
##닐
##맹
##😠
##맙
##k
##빈
##픽
##헌
##맘
##곡
##첩
##c
##펑
##토
##잉
##록
##칭
##❓
##듬
##읃
##줌
##즐
##퇴
##숙
##겅
##액
##됨
##잠
##빤
##봇
##젤
##초
##널
##쥬
##쉐
##턴
##섬
##땜
##쉬
##므
##앗
##늬
##찾
##퉁
##탐
##캬
##흘
##꾼
##랭
##냄
##옳
##씀
##깡
##숱
##깝
##롸
##젝
##닫
##😎
##랫
##렀
##뺏
##됐
##완
##볍
##샌
##욬
##떤
##뿌
##째
##갚
##꿔
##뜯
##뇬
##훼
##쌕
##츠
##닝
##꾹
##넣
##퉈
##꼭
##켰
##닮
##뀌
##꿰
##뚫
##좆
##T
##끝
##또
##럭
##깨
##횔
##룹
##꿈
##섂
##쑵
##돠
##깔
##껏
##멏
##푼
##랐
##짐
##🇷
##갓
##캐
##칫
##깎
##쌀
##략
##줫
##킬
##쏴
##홍
##랸
##흥
##몬
##C
##큐
##봄
##옆
##랜
##논
##녕
##➕
##❎
##빢
##몽
##숭
##뜨
##효
##놔
##🐕
##탔
##렁
##뱅
##쾌
##캉
##즤
##잃
##쌔
##렴
##즬
##흡
##웟
##첵
##w
##칙
##썩
##촉
##삭
##핏
##껑
##밎
##겹
##튜
##캠
##쓴
##옵
##봅
##읜
##ㅁ
##첨
##땡
##팸
##삼
##땃
##핫
##흔
##칠
##둔
##흠
##뭘
##숩
##걷
##쌈
##밍
##뛰
##햌
##둑
##닢
##뀔
##벼
##뎈
##쉽
##쾅
##짆
##😧
##숫
##빴
##혁
##쳣
##욘
##멋
##끈
##ㅌ
##샠
##K
##밤
##깽
##떄
##괸
##넼
##싹
##높
##벅
##콜
##빅
##🕊
##궈
##룰
##싯
##쿡
##궁
##벗
##냉
##응
##갑
##맥
##텽
##휴
##S
##퀸
##헝
##걍
##ㄴ
##톡
##곱
##R
##컵
##팩
##끊
##넨
##😂
##칩
##녆
##뛸
##램
##슙
##꽈
##꺠
##쎄
##뜰
##벨
##럄
##끗
##옷
##귝
##v
##흉
##☝
##뚱
##🔥
##풍
##덤
##샊
##씻
##딘
##혔
##텅
##똘
##찮
##뤘
##헬
##ㅆ
##답
##숀
##ㅍ
##걀
##웡
##롱
##듭
##딨
##벽
##갘
##쉑
##톤
##암
##맡
##솥
##멈
##빙
##f
##쿠
##깜
##콤
##픔
##갖
##쏘
##옹
##닦
##삘
##뗏
##밌
##땐
##됌
##잼
##셋
##앨
##💓
##엣
##️
##🆘
##괄
##됭
##측
##볗
##웤
##괘
##넺
##및
##😍
##덴
##뻐
##갸
##젓
##쫌
##귄
##썅
##떴
##컷
##껌
##뻥
##몌
##솔
##핳
##욧
##칸
##롤
##쏠
##델
##렉
##뒷
##쁨
##뤄
##킥
##놜
##셀
##텝
##겡
##늠
##♥
##껍
##윤
##뱌
##눔
##밋
##닙
##촐
##껴
##👏
##뱃
##랩
##늨
##땟
##녜
##Q
##H
##퐁
##릎
##꿇
##엥
##깁
##쩍
##뻗
##껀
##챈
##봣
##얀
##넬
##얻
##삿
##J
##떡
##콧
##깍
##뎁
##랖
##폴
##옴
##🏻
##h
##👌
##뛴
##댔
##홧
##밦
##쎈
##썼
##잎
##닥
##햐
##욤
##츄
##맏
##롬
##핼
##톰
##쯧
##늙
##즉
##눌
##퐈
##U
##폼
##댐
##잦
##슷
##뿔
##꼿
##갰
##륭
##펜
##벞
##촟
##짰
##잌
##딜
##랗
##쿱
##썬
##쎅
##뇽
##쩝
##픈
##꽂
##링
##꼼
##꺄
##섴
##ㅃ
##🖕
##W
##😡
##됫
##꼰
##땍
##쩡
##샵
##슈
##킈
##훤
##젊
##읽
##빚
##흑
##탠
##딧
##낄
##춰
##곧
##셸
##돤
##밷
##찢
##긍
##댱
##쫄
##꺽
##쌤
##훠
##셧
##켓
##켔
##🎉
##돕
##닛
##늉
##흐
##컨
##씌
##턱
##융
##빛
##앵
##샘
##쁘
##쐇
##퓨
##😫
##캔
##샏
##겉
##핡
##뼈
##셱
##샤
##틍
##엉
##촬
##❌
##👈
##엊
##앖
##뽄
##웁
##곽
##돗
##윈
##쉒
##잣
##딛
##횽
##씁
##쿄
##셉
##덯
##덮
##팀
##딲
##핬
##첬
##😭
##큰
##댁
##셐
##꼽
##갤
##낯
##끠
##끔
##🌟
##💙
##븐
##끍
##엤
##뱉
##ㄸ
##쩨
##띠
##춥
##닼
##끓
##핰
##떳
##뵈
##듦
##웨
##촞
##붤
##룸
##괭
##껐
##뗴
##졎
##셜
##쓱
##뎀
##뜸
##빽
##왈
##읍
##썹
##툼
##쿵
##듀
##냬
##륜
##빡
##됄
##앱
##깊
##컴
##즁
##🇺
##🇸
##긔
##뷔
##핞
##즹
##팍
##틈
##텔
##뺌
##옛
##쟌
##곈
##얄
##🐆
##뻑
##탭
##🐷
##🐖
##젱
##섯
##춤
##👍
##붓
##쿨
##댜
##싄
##ㅊ
##꽥
##멤
##젖
##펀
##뚝
##쑤
##룩
##텍
##샀
##틸
##팠
##펭
##굶
##뤈
##젼
##숴
##샛
##🚁
##🚀
##텡
##귤
##팝
##힙
##헉
##헸
##옌
##렌
##섰
##룬
##꼈
##펫
##맣
##똴
##촤
##얹
##뎨
##겸
##둡
##옉
##룡
##뷸
##갠
##갼
##뤠
##짘
##씬
##핦
##홈
##핥
##욌
##틱
##씸
##읎
##밟
##켠
##묘
##겤
##굳
##곁
##샨
##죈
##밴
##삥
##쉰
##몿
##♂
##헐
##벙
##퍽
##훔
##렝
##껒
##꽌
##뫼
##꼳
##잏
##🤬
##켈
##💚
##💟
##💖
##💞
##💗
##💕
##💜
##셍
##몃
##겪
##뤼
##핮
##썽
##쭉
##쨰
##퐐
##뱀
##쁠
##쉴
##꿍
##💥
##쪄
##붉
##냅
##졷
##갯
##츰
##뵤
##꽃
##띄
##섀
##쫑
##엨
##엌
##😚
##낰
##멎
##🇰
##캡
##슐
##쌓
##쏟
##💯
##떵
##탉
##릅
##꿁
##쪙
##q
##괜
##셩
##뗘
##탑
##딪
##듈
##긧
##짚
##뺄
##Y
##젔
##벵
##핧
##앓
##😢
##솟
##궤
##펙
##븅
##뒺
##닳
##잫
##꽁
##뱔
##뎅
##뭇
##씹
##컫
##죗
##됀
##맺
##묶
##킴
##셰
##밸
##굼
##혓
##됏
##✋
##숑
##헥
##씐
##헹
##잤
##찜
##넛
##튕
##😬
##볶
##❤
##펴
##핀
##흰
##끙
##닿
##찹
##잨
##깻
##샷
##😄
##뜬
##릉
##겋
##😝
##롯
##쥑
##꾜
##슝
##🇳
##엑
##샄
##뀐
##컸
##칵
##칼
##졔
##🙇
##왝
##🏽
##♀
##튄
##🇵
##뜩
##잊
##닷
##z
##좁
##셕
##켄
##걔
##얷
##뵌
##샴
##죵
##폄
##맷
##띨
##😃
##🌸
##🌼
##캄
##죌
##읶
##👉
##쌌
##겔
##얔
##뱄
##쵝
##궜
##샙
##귈
##빳
##먄
##헴
##렘
##돔
##룻
##횟
##펠
##뗀
##꿋
##찻
##썻
##팼
##넸
##뤌
##긂
##밬
##곀
##빰
##웹
##넝
##긁
##👿
##믹
##넴
##넥
##팟
##헨
##닉
##뮬
##퐉
##킵
##띁
##윔
##탤
##떙
##💢
##몾
##쳔
##봨
##핣
##꿉
##쥭
##쭤
##쮸
##쎼
##밧
##랼
##샥
##뻣
##섞
##퍅
##늄
##😱
##깅
##헛
##륨
##쥥
##💐
##챵
##헙
##랰
##긑
##늦
##젭
##멊
##죡
##벚
##휠
##늕
##녴
##돛
##😣
##싀
##☺
##겻
##톈
##멜
##렛
##쬐
##🔞
##쩜
##듄
##륵
##텃
##몫
##헷
##😑
##훌
##덟
##싣
##즙
##🌺
##🍑
##💪
##붇
##툽
##곷
##쌩
##붜
##줜
##빔
##쨀
##눕
##챦
##죤
##👃
##퓰
##궐
##캤
##싥
##귾
##솬
##🐦
##🗝
##깃
##덧
##쨔
##곬
##땀
##렺
##엮
##릳
##펨
##툐
##죙
##룍
##쥔
##갭
##잰
##녘
##킁
##컥
##끤
##쉅
##잆
##넵
##둿
##냇
##🔊
##✊
##얏
##샎
##븍
##굿
##슘
##쒸
##뫌
##켯
##퀵
##샹
##헀
##쉔
##잟
##븡
##쮜
##욨
##퀄
##슾
##쑥
##첼
##놧
##촹
##뭤
##쫒
##톱
##뚤
##횐
##돵
##쿸
##낑
##쒜
##찼
##❗
##쭈
##뮤
##잽
##딕
##왁
##씞
##쏙
##댘
##찿
##🎊
##⚡
##☔
##앜
##찝
##😛
##눗
##뺀
##🤗
##겆
##뢀
##쏜
##쉨
##컼
##됵
##옺
##츼
##쥤
##겧
##겜
##웰
##빻
##🐒
##믜
##뉨
##곘
##믈
##끽
##엾
##꿨
##딹
##쭝
##솽
##짬
##맗
##곅
##켐
##잭
##웜
##낚
##섺
##읺
##쫓
##뫄
##👻
##닏
##됴
##댑
##쫏
##룟
##쭐
##❣
##먀
##넉
##룐
##뚠
##쯰
##꿜
##Z
##줏
##펄
##낟
##펼
##븥
##뽀
##빗
##줭
##뺨
##돰
##뇸
##곗
##뱁
##흣
##깉
##뭏
##봘
##뎠
##덱
##뮌
##쌉
##욿
##옮
##앴
##🇯
##좇
##옘
##볭
##🐀
##🐓
##🐔
##❕
##넓
##탬
##빕
##뼉
##굉
##맂
##츤
##졍
##😮
##슁
##앟
##맀
##츨
##콥
##땔
##🥰
##닺
##😅
##긱
##쑝
##☄
##🌋
##뭣
##욥
##댸
##쳬
##쐬
##핍
##홥
##뮈
##멱
##냰
##👎
##죹
##윙
##깤
##갇
##띵
##😤
##딬
##읊
##닶
##몆
##쏼
##꽤
##웧
##킷
##낱
##쏭
##쒀
##쓥
##랠
##돟
##뺑
##엠
##삔
##🗡
##🔫
##좐
##굥
##룽
##땨
##탹
##콕
##뿍
##뺘
##👊
##훽
##캍
##😜
##👹
##🔪
##짹
##좟
##왑
##얇
##찟
##냠
##얽
##섥
##🔵
##닽
##썸
##쨋
##윽
##좡
##삑
##뿟
##깠
##쯍
##뺐
##찧
##쯩
##쟤
##냣
##뵹
##쯔
##껭
##😀
##펌
##붐
##럐
##냘
##챱
##쟉
##섶
##쭛
##🎤
##튭
##🐈
##럾
##🤣
##🎴
##쾨
##쪾
##밨
##솜
##큿
##첸
##굑
##흩
##닠
##몱
##짧
##몐
##췄
##썌
##뫈
##뚸
##롳
##툴
##뎔
##💩
##텀
##쫀
##봫
##셤
##곹
##맵
##삯
##뗌
##😆
##찡
##쨍
##밉
##😉
##😌
##챠
##딋
##햄
##죳
##줕
##햔
##띤
##읮
##윌
##쬬
##넙
##맄
##둣
##⃣
##😙
##🐤
##깥
##뿜
##섘
##✔
##😰
##팢
##릐
##늣
##쥴
##뮨
##콴
##꽐
##🎶
##썪
##😘
##멩
##쎗
##🦀
##쭵
##괼
##킼
##👐
##섕
##😞
##챘
##😁
##봥
##앚
##✨
##솨
##랒
##펐
##챌
##꺾
##랲
##썰
##떱
##퀘
##켝
##뎄
##숵
##꼇
##폈
##맟
##봍
##닸
##쿤
##핸
##폇
##듥
##🦋
##곸
##돚
##킝
##∼
##꽝
##둟
##☠
##듸
##뵐
##퍈
##ㅄ
##싰
##쇡
##싳
##넠
##뺙
##늑
##🐝
##룔
##쉼
##깼
##훍
##😈
##🤕
##💀
##🤑
##🤢
##🤮
##쥣
##눙
##컹
##▶
##솓
##쉭
##짭
##윘
##🐿
##춧
##깢
##옶
##🐴
##훗
##헣
##옸
##듷
##겇
##뭄
##딮
##낏
##녤
##뻭
##홉
##뿡
##샜
##옐
##숲
##쬭
##🎈
##떔
##훅
##멉
##쨈
##🏿
##궸
##ㄺ
##팁
##젿
##싴
##곪
##✴
##넜
##켤
##맇
##픙
##😊
##쐑
##샆
##캥
##🍊
##삲
##💛
##땠
##⛔
##늧
##칮
##캅
##겈
##툭
##🚨
##좔
##븨
##훨
##톼
##뼝
##💰
##궹
##괞
##쨌
##쾈
##🥺
##틋
##뿅
##쯕
##팥
##씦
##쉿
##씽
##홑
##렣
##펏
##벋
##💝
##얭
##뻬
##🙏
##퍄
##줙
##듕
##쒼
##뀬
##큽
##빱
##얍
##쟝
##😗
##짠
##껼
##🐽
##툰
##꿧
##빸
##뺍
##끋
##쫙
##걑
##굔
##쪕
##샡
##놉
##밣
##챤
##꿘
##쳡
##롴
##퉤
##츙
##쌨
##궘
##🚴
##🤩
##읅
##놐
##갛
##눴
##늪
##엡
##쳉
##샬
##믓
##쏫
##겍
##츱
##얜
##쉈
##왠
##웬
##돳
##싡
##촘
##큘
##앰
##뭥
##쌖
##닞
##뼌
##췌
##똬
##솤
##쉘
##뎆
##✂
##듧
##뢉
##삤
##🌷
##쥰
##봊
##홰
##죱
##젴
##잿
##켷
##뀜
##갷
##뽈
##뚕
##풉
##🐵
##⭐
##늗
##녈
##뽤
##쪈
##멕
##옿
##🤭
##튬
##됒
##🐯
##풋
##뀝
##👣
##엦
##쓉
##냑
##멧
##쐰
##캇
##밈
##🤯
##싨
##샣
##짴
##👦
##🎗
##틔
##쓩
##☹
##핝
##맜
##챡
##🐅
##쑨
##궂
##굵
##붸
##싁
##좍
##😨
##듐
##믕
##🙋
##깬
##눜
##렐
##볌
##웍
##퇄
##돴
##뭅
##쨩
##묜
##쐭
##🙆
##맴
##돨
##🚗
##쇜
##윾
##먕
##푠
##즨
##밫
##읆
##쎔
##앎
##🐎
##쟹
##🤤
##쌋
##쿼
##읻
##짢
##텁
##젛
##턔
##👟
##욜
##놰
##긐
##릊
##듵
##궝
##궉
##쐈
##켸
##😥
##톄
##몈
##앏
##👴
##팤
##멌
##♣
##뭍
##왼
##옄
##🌶
##릔
##듨
##갲
##뺃
##헠
##🙌
##뻤
##롹
##힣
##싞
##뉸
##벱
##뒹
##🤧
##🤒
##깧
##횃
##읉
##킄
##쀼
##뙈
##갂
##뀨
##놋
##딷
##🐭
##켬
##맆
##롄
##팜
##쇗
##☀
##앍
##섁
##샋
##맍
##곰
##줒
##읏
##츌
##눅
##붛
##옇
##튤
##돱
##🎇
##빋
##셑
##👄
##뗐
##죕
##밯
##쁩
##깰
##롲
##홋
##햏
##윅
##뽁
##듫
##렿
##괌
##봏
##🎸
##🥁
##💊
##뽐
##힜
##폿
##퓹
##뱐
##볐
##👤
##👥
##쓔
##😲
##즞
##숍
##🐱
##😵
##앋
##렼
##🏼
##졈
##텄
##봬
##댙
##쉣
##곶
##겝
##긇
##츈
##싲
##뭡
##😖
##🌹
##뱍
##뷴
##싢
##뼤
##👁
##깈
##낵
##얖
##쟜
##퀀
##췃
##쳦
##꾤
##씝
##짗
##껰
##쐐
##🤔
##옙
##벳
##혝
##젰
##핟
##햤
##쳌
##긿
##욛
##잩
##젬
##콰
##읒
##얒
##긕
##끕
##곌
##휀
##깞
##🇪
##🌕
##뉩
##푹
##쌬
##셲
##띔
##엳
##똔
##🙂
##놌
##굻
##콱
##맑
##좉
##뜽
##갗
##칀
##랋
##뺴
##툥
##쉌
##얗
##젹
##텬
##딤
##빩
##샅
##핌
##😓
##🤦
##읁
##쪘
##쫍
##렆
##🎵
##죷
##왘
##☢
##🇨
##먿
##섣
##앃
##뉠
##싮
##궄
##찎
##랃
##꿎
##뙤
##쐉
##쌰
##얶
##댤
##퇸
##셥
##땄
##씼
##걩
##읭
##낍
##맬
##렠
##🎄
##뎐
##🥚
##▪
##쇅
##씰
##롓
##👞
##슌
##깄
##픕
##믽
##🔕
##😳
##꾀
##핓
##🐮
##욯
##뻰
##벡
##쿰
##랳
##💣
##궙
##펩
##엪
##뜀
##랟
##㊗
##뙨
##휼
##촨
##얕
##힉
##쎜
##헁
##퍙
##궛
##🙊
##🙈
##댭
##뾰
##퍌
##갬
##솼
##짔
##늫
##쬑
##🐧
##뎟
##껜
##뒝
##🌈
##읠
##톻
##퓡
##쭀
##턍
##쎠
##🐉
##삣
##뗄
##굣
##촥
##캭
##싪
##뇜
##🌝
##솎
##솅
##벧
##낡
##뻡
##욋
##팰
##닜
##팹
##훻
##젘
##띌
##쭙
##젆
##뻿
##쯪
##뢍
##묭
##뤂
##🥳
##힝
##욷
##챽
##왤
##🔸
##쪅
##좈
##롐
##둰
##솄
##잴
##귁
##햠
##덫
##텼
##숄
##쨥
##🖤
##죸
##콬
##켱
##줠
##렜
##룁
##쇤
##🙉
##얙
##🐩
##✳
##믁
##롷
##엏
##🎯
##댠
##챗
##젙
##넿
##🕷
##옼
##🍻
##쭘
##뷩
##튈
##🦮
##닟
##붠
##셌
##딥
##핤
##햊
##섻
##뭨
##윕
##켙
##뽜
##뫙
##🚔
##셯
##넎
##쒞
##췽
##븜
##렄
##욍
##뮷
##듲
##괂
##겂
##♨
##뛔
##쌘
##탰
##잪
##냌
##뼜
##긒
##볻
##🧡
##솈
##삷
##떽
##👺
##빆
##끘
##좸
##🐥
##윳
##귓
##챔
##쯥
##꾾
##뜷
##볓
##뵙
##쳧
##셴
##쉡
##😋
##렙
##줗
##휩
##룜
##💤
##햡
##쁀
##놘
##뽝
##봔
##짇
##힛
##넽
##낔
##깸
##쟀
##쏀
##갮
##💦
##챃
##읕
##겢
##옜
##튿
##🎼
##쥼
##톳
##웩
##샂
##홱
##🐙
##🐺
##🐫
##댇
##퀼
##죻
##퉷
##굘
##😇
##듼
##😷
##뉼
##쵸
##🍈
##🍉
##⬛
##뢈
##냊
##뮹
##켭
##롣
##맸
##똒
##춍
##뱓
##🕯
##좠
##🐁
##뵜
##맼
##🏾
##쫘
##껬
##뤗
##캣
##잕
##꿑
##앝
##묙
##숼
##😏
##뚣
##켁
##똭
##🔹
##붏
##싕
##됍
##릏
##숸
##퓌
##퉸
##뱡
##겊
##🐄
##뗍
##꺅
##펵
##엢
##훙
##🦜
##뷘
##걈
##쨉
##럲
##됙
##믐
##훕
##윱
##몄
##⛏
##씅
##쎀
##휜
##겓
##챰
##녠
##🥶
##👼
##쓤
##쭁
##앸
##븰
##뱆
##눰
##빍
##땈
##웓
##듁
##얺
##삵
##큭
##셓
##🏃
##🤸
##🐨
##줴
##🐣
##됼
##읐
##쎕
##뽂
##젯
##딀
##쯘
##쒹
##벴
##짊
##삳
##왰
##🦇
##읔
##샑
##쉥
##샇
##떰
##뜾
##엗
##닾
##졑
##띰
##캈
##뭬
##촙
##갹
##쒴
##찷
##팎
##눤
##✌
##😐
##🛑
##뺸
##얐
##짙
##🍎
##🍅
##뷱
##팻
##짒
##🌞
##줟
##삮
##붑
##텋
##쥘
##벰
##윰
##됗
##🦍
##삻
##🎆
##👑
##믠
##킅
##엍
##😩
##쳫
##땩
##몯
##깆
##좝
##멓
##쎙
##쫗
##뫃
##♠
##💲
##💸
##땁
##🤷
##🔖
##◀
##쟂
##짅
##묠
##🐾
##밞
##먜
##줳
##즥
##럱
##왚
##긌
##넋
##🤨
##뺠
##🍞
##곂
##햅
##텟
##쎆
##츳
##➡
##쏱
##슼
##👩
##칬
##햩
##잀
##늰
##끅
##👧
##🐇
##렂
##햑
##🇼
##🇹
##햬
##🌚
##😪
##웽
##럤
##쳇
##햘
##췡
##싑
##땝
##😶
##🤛
##🚫
##🔨
##🍄
##📍
##⭕
##💋
##🐰
##읖
##깦
##😴
##❄
##팃
##쑹
##🧨
##쵼
##퇫
##🥇
##챨
##푤
##뉜
##💘
##쇆
##샐
##🤺
##🐑
##븝
##쪌
##똫
##윀
##풰
##켘
##뜌
##뒨
##뮐
##녛
##쌱
##먺
##훓
##🌛
##곃
##풒
##🎋
##떧
##옝
##떈
##뀠
##💫
##흭
##꾿
##😒
##앂
##찓
##곺
##짛
##잍
##♦
##쎴
##🔔
##🌜
##욪
##🤪
##읋
##쨘
##잂
##🐛
##쫩
##팛
##쑴
##싷
##겎
##놁
##🌿
##줔
##🍝
##멨
##둉
##쾡
##춴
##씺
##슆
##탸
##밐
##🦁
##뤡
##⬇
##롁
##🚢
##🐂
##🥵
##🤥
##쵀
##댖
##븀
##췐
##🎺
##잗
##젇
##읫
##붂
##🐍
##먈
##볔
##죴
##뇠
##핻
##🐗
##섵
##퇬
##섲
##쎌
##쒔
##틑
##챴
##🎃
##🍀
##늩
##🍓
##갋
##쾐
##📣
##솝
##퉜
##👅
##벝
##뽚
##쬽
##웈
##쉉
##텰
##👽
##🙄
##맠
##곙
##붘
##밢
##슺
##틉
##퍠
##쟛
##즣
##옻
##돜
##쟨
##휸
##홓
##풜
##™
##뻇
##🔑
##볘
##쳑
##졓
##앛
##컄
##몪
##켕
##릍
##졐
##🍾
##갆
##🐏
##🤐
##🏮
##햿
##뼁
##🌙
##💡
##↘
##덨
##횅
##럇
##뎡
##섮
##😔
##옯
##헜
##슿
##묏
##숖
##햰
##🎬
##잢
##🇬
##🇮
##쳥
##띡
##꼉
##읂
##쑬
##짲
##냤
##갃
##💌
##됻
##륻
##⬆
##뻠
##샾
##🙅
##쉓
##뼘
##땸
##엯
##봡
##쫭
##쥿
##뿝
##🤡
##📢
##빟
##낗
##읾
##뱨
##🤫
##뭌
##뭠
##🍺
##녾
##슛
##🤠
##쩠
##곻
##휭
##슭
##😻
##🧟
##쫔
##빧
##괁
##갉
##줮
##꼅
##긷
##쵤
##깩
##💃
##🌻
##🦠
##✈
##쭌
##뒸
##찯
##홬
##곯
##핱
##쎵
##🧢
##촣
##븽
##렫
##꿱
##멵
##슉
##덪
##붖
##🦅
##밠
##꺌
##뷁
##젋
##눟
##럈
##🤟
##🤘
##왛
##즛
##뢔
##궃
##돞
##🐟
##쟙
##✖
##놯
##🎌
##뇀
##잛
##냼
##📛
##짼
##👯
##먁
##쯉
##캑
##😕
##뫠
##🥴
##쥡
##춯
##죧
##붹
##딫
##긜
##됑
##귱
##낃
##싵
##햛
##👫
##듩
##졀
##웆
##🤝
##쟐
##🤜
##웛
##🌑
##앀
##깂
##왐
##뗠
##넚
##퓸
##🍂
##븟
##쒯
##겯
##쨕
##햣
##쯨
##잋
##뺵
##랕
##🦴
##뇐
##뗳
##웝
##녅
##🚩
##꿩
##첮
##뼛
##댯
##🥊
##폠
##뗜
##옫
##췁
##꽅
##햭
##푀
##🍁
##닻
##왱
##릌
##푝
##🍼
##옂
##➖
##턀
##벸
##늟
##뽱
##👋
##🖐
##콸
##젅
##갴
##흫
##쇙
##🦶
##🦆
##튠
##듡
##🍃
##옽
##👀
##💵
##닊
##릂
##좽
##쥽
##쎘
##챀
##몼
##괏
##씉
##웑
##옪
##첝
##폑
##💨
##홤
##걉
##쉙
##궍
##닪
##👇
##뜹
##캘
##껸
##뀡
##🦺
##괬
##퉥
##끛
##탯
##📌
##💄
##🙃
##땽
##빯
##휑
##꿴
##퓽
##먆
##뵨
##툇
##굮
##뢐
##쩄
##옅
##🍏
##꺙
##👨
##혠
##🏈
##땋
##ㄻ
##쏨
##뢱
##쐨
##쒰
##뎜
##탼
##뮴
##쇽
##벆
##⏪
##벹
##믾
##넫
##뜁
##꼮
##띈
##퐌
##🦊
##묹
##졉
##썁
##낂
##휙
##🧐
##깋
##갵
##🔷
##씃
##🌏
##✅
##혤
##흴
##앆
##뙇
##롶
##☑
##좦
##맻
##🍆
##🔇
##🇱
##졵
##븹
##꾁
##🎁
##🔧
##횬
##⛄
##닣
##쨓
##🍒
##🦝
##껨
##쐴
##짏
##🤴
##싈
##덛
##쳘
##숰
##뒛
##캪
##쪔
##롕
##짯
##롼
##🌾
##컽
##뭊
##봗
##랂
##칑
##찣
##듪
##🍬
##줩
##팓
##욀
##쌥
##듴
##씯
##쯫
##↗
##굷
##뢴
##숮
##귿
##큉
##🩸
##췅
##🗿
##⚠
##믇
##헿
##🐳
##젏
##봌
##쎡
##🍔
##🎧
##닯
##🦉
##긎
##꽹
##뺕
##🍇
##굯
##릫
##젲
##닚
##윸
##뱽
##💁
##🥀
##떢
##궨
##옃
##↔
##맔
##얃
##햋
##볏
##뗑
##꿂
##눞
##👪
##👬
##👭
##💏
##💑
##퉛
##켑
##칰
##딍
##좊
##읿
##🛎
##읇
##🍰
##🇭
##밪
##괙
##뮥
##짪
##뛧
##횝
##앢
##ㄳ
##씳
##⬅
##솰
##끚
##폅
##맢
##뵁
##뺜
##둗
##💒
##냦
##땬
##엷
##꽊
##숳
##꼻
##싺
##쇳
##푯
##쾍
##잧
##썡
##🐻
##짞
##칞
##🏴
##댗
##쩟
##줱
##숏
##홯
##🤓
##뜡
##큨
##벓
##👗
##🌀
##벍
##몋
##좄
##뚯
##걌
##🤚
##뵀
##빝
##갏
##븁
##햝
##촵
##좢
##ㅀ
##🎀
##죰
##낛
##맊
##졘
##껶
##🌱
##🌎
##얫
##흨
##팦
##젗
##🍭
##늡
##씪
##쌧
##넢
##볾
##👶
##푱
##쏩
##🧠
##덋
##👂
##똣
##뺒
##쩢
##븬
##멐
##🌄
##씾
##듳
##춋
##띱
##핲
##웄
##낞
##폥
##뭑
##쮹
##🎂
##➰
##먽
##튱
##륀
##🎙
##쎤
##픗
##욮
##핶
##퇼
##궅
##껔
##봑
##녂
##괵
##😽
##꾕
##🗣
##휨
##😯
##픵
##갣
##읨
##섷
##뭰
##🎷
##눨
##퀙
##밮
##븩
##뭫
##픠
##👵
##줃
##쩦
##뒬
##쩧
##쎃
##🍚
##꿃
##⛳
##뱝
##몡
##녿
##췼
##쨜
##얂
##얨
##뮝
##텻
##샞
##륍
##쐽
##껫
##햟
##🍳
##넒
##넖
##뗗
##펍
##흌
##붃
##쳠
##🔲
##떫
##🤰
##냡
##🔉
##👆
##줸
##챕
##쌜
##싦
##🍖
##읙
##꿏
##🕺
##☘
##늼
##귐
##☣
##틅
##튐
##🚅
##풔
##뚀
##🤞
##❔
##뷍
##낲
##붚
##걲
##🔅
##🔆
##💔
##🐸
##뚷
##🏅
##몴
##칡
##븉
##🌵
##🥥
##🍌
##앲
##뇰
##퐝
##핢
##쪗
##👾
##샕
##묷
##폽
##🐜
##🍴
##샼
##걵
##🌊
##깹
##🌍
##슄
##왴
##⚔
##⚰
##똠
##둇
##욹
##🎹
##휄
##딝
##훳
##👙
##😟
##됮
##쌂
##돝
##랓
##🗽
##뮛
##옭
##캌
##뱜
##🐹
##튓
##짋
##쏵
##틐
##💎
##샸
##퉵
##☎
##덷
##훑
##🇦
##힁
##횄
##빬
##읰
##쫃
##쎾
##⚖
##뮙
##촴
##묫
##왹
##춣
##뷀
##놬
##떯
##훵
##🔺
##짦
##컈
##쁑
##볜
##섿
##밓
##긘
##꽄
##🌰
##섡
##🌩
##🌧
##👘
##🚑
##솩
##쭥
##껙
##벛
##🔮
##댛
##📺
##넗
##뺭
##붱
##쨎
##뉍
##🥕
##섄
##껵
##얠
##앐
##쮠
##눍
##낧
##👮
##뿕
##쫐
##쌴
##낝
##먖
##졻
##🎭
##뻉
##🐃
##퇀
##쟞
##몣
##젉
##즂
##쓒
##먾
##욺
##흽
##🍋
##탙
##퍀
##흄
##쏳
##엃
##륄
##옰
##맽
##👲
##죨
##틁
##뻈
##졲
##첯
##묽
##춈
##줯
##웸
##튑
##뱸
##뻴
##쮝
##죅
##줓
##🌽
##똗
##걘
##📯
##얾
##졳
##얊
##됸
##🥒
##봟
##쀍
##땰
##쯜
##윷
##뻩
##🐼
##잚
##휏
##⚫
##💧
##젎
##똟
##↙
##츅
##🏓
##넑
##뵵
##웂
##🏇
##붋
##꾐
##🥖
##쫴
##®
##🔻
##좂
##🦼
##퀭
##먗
##🕖
##풓
##쀄
##쪚
##쬠
##홨
##으로
##하는
##들이
##하고
##니다
ㅋㅋ
##에서
##는데
국민
##다고
아니
##이다
##들은
사람
##라고
문재
나라
##는거
우리
일본
##으면
##하면
##해서
이런
생각
중국
문재인
진짜
##이라
##통령
##다는
하는
한국
##하지
##까지
##나라
지금
##니까
##세요
##렇게
##리고
##이나
##하게
##한다
조국
##대로
##ㅋㅋ
대통령
##하다
대한
##지만
##인데
민주
북한
그냥
##에게
##해야
ㅋㅋㅋ
##해라
정치
##네요
##민국
##한테
정부
##레기
##구나
##면서
있는
인간
##이고
대한민국
##같은
이제
문제
하고
##00
그래
##부터
##보다
정신
##라도
##습니다
##는게
아닌
모르
정말
##들어
##들아
그런
##사람
##주의
검찰
미국
무슨
##려고
그러
민주당
##야지
##합니다
댓글
경제
같은
##이지
정권
너무
##적으로
##이냐
##소리
지지
##입니다
##으니
##OO
##겠다
##인가
기사
하나
##어서
문재앙
저런
##처럼
자기
##리는
세금
##한당
##들의
우리나라
##것도
##이가
아무
하지
##하네
국가
##적인
이게
##들을
##는지
좌파
##자가
자한당
##갱이
얼마
없는
##지고
그리고
쓰레기
##이네
##겠지
##들도
##이라고
##라는
##아서
어떻
그렇게
어디
##문에
있다
##말고
들어
제발
아직
안되
당신
잘못
OOO
한다
##가리
없다
##잖아
자유
##천지
누가
어떻게
다른
##하냐
##인이
##지도
아니라
##정부
##이야
##정권
조선
나오
빨갱이
##인지
##다가
##해도
이렇게
##놓고
언론
##근혜
국회
그럼
##로나
##하나
많이
사회
##의원
##없는
##시다
##어야
##한거
##하는거
그만
신천지
##가는
##자들
##더니
##스크
##시키
##있는
이번
이상
소리
얼마나
친일
ㅉㅉ
##거리
##에는
##돼지
코로나
##이는
##어요
국민들
공산
##기는
##보고
##국민
거짓
사람이
##어도
##지는
살아
보수
보고
박근혜
수준
수사
##는다
##하는데
##을까
마스크
##가서
아니고
제대로
정의
##된다
##봐라
##정은
선동
나라가
해야
##와대
##었다
##자는
세상
사실
피해
##에도
필요
ㅎㅎ
여기
이해
내가
##주고
모든
이미
근데
##는건
만들
##정도
돌아
##이면
##구만
선거
니가
10
##겠네
아이
##나요
니들
다시
말고
청와대
모두
계속
하면
만들어
탄핵
아직도
조사
20
누구
미친
##했다
이건
아닌가
아베
좋아
##마라
##새끼
조작
##리가
개돼지
##하기
##가지
서울
대깨
좌빨
##다니
좋은
여자
##이라도
##이랑
보면
아주
##러운
##없이
해라
사람들
이유
말이
##아야
##하라
한심
언제
대깨문
그래서
##시켜
##하자
역시
한번
##하니
알고
많은
##같이
##아니
그게
##하시
대구
##하면서
##먹고
책임
당연
##거다
무능
##어나
##보면
새끼
##기를
자식
국민이
범죄
재앙
부모
##기에
##없다
##텐데
바로
##던데
##한다고
##것이
경찰
100
그렇
##어라
##만원
뭐가
총선
##인들
##하는게
이러
##이니
니들이
김정은
##시민
결국
가짜
##더라
절대
기업
국회의원
국민들이
가족
토착
##주는
황교
##치고
##당이
국민을
없어
위해
##수가
완전
빨리
##주세요
때문에
##성이
이거
##지않
세계
반대
##기업
##와서
##중에
자신
나라를
아니다
전라도
받아
어떤
##는거지
##겠냐
상황
적폐
##것들
요즘
있는데
##이란
##기가
정도
독재
같이
인정
기자
##거지
##사가
세월
여론
##대체
##고있
사기
이용
##지말고
너희
##되는
떨어
##일보
##려라
##동안
장관
도대체
권력
더불
##대통령
##전에
##무원
##거나
##이라는
보내
##시고
없고
##치는
거짓말
##ㅋㅋㅋ
##체가
지들
##사는
합니다
##놈들
다음
달창
##스럽
전부
##이상
있었
구속
##때문에
##시간
##왜구
사람들이
시작
먼저
아님
##아라
세월호
##지가
마음
##건데
##다면
##조건
아니면
그래도
입국
보여
##운동
어느
남자
##뉴스
국민의
현실
##하여
안보
##자리
##경원
시키
이젠
##장이
처벌
##장관
나경원
걱정
정상
##라이
얘기
공무원
어쩌
무조건
사고
뉴스
사과
##것이다
30
##가고
##려는
그걸
어찌
##하며
##하세요
대단
그리
시간
황교안
본인
얼굴
##머니
응원
토착왜구
머리
지원
지역
문죄
외교
##당은
하는데
##되면
기레기
외국
못한
##밖에
##들에게
##해야지
모르는
##리지
행동
나도
앞으로
되는
엄청
##개혁
다니
##건가
##수있
##기도
##했는데
있을
##국가
해도
##스로
정책
내려
하루
니네
삼성
힘들
아무리
역사
윤석
##리면
우리가
##보니
지랄
##한데
촛불
사이
중요
##럼프
하는거
검사
아니냐
것이
가능
##민주
가장
대통령이
##려면
##아먹
대가리
더불어
##조사
시민
##생각
것이다
사건
먹고
나쁜
집단
저렇게
법무
전쟁
오늘
트럼프
##라지
난리
개인
가지고
##기고
공수
일베
미래
중국인
##것들이
##력이
문재인이
##대는
진정
##건지
지지율
##하겠
50
일반
##남불
##려서
##하던
##았다
증거
##로남불
친일파
##대가
##되고
해결
이나라
##도록
공수처
해서
방송
##었는데
18
##받고
무식
같다
##대가리
가서
##끼리
서민
##드는
##대표
##거야
부끄
##들만
교육
##나서
나는
일본이
##한게
최고
불법
##들고
##아요
##르고
진보
이야
개혁
양심
정부가
없이
##라서
공개
##인간
더러운
만든
이래
팩트
반일
관심
매국
##간다
된다
##수도
##는거야
알바
##드시
##내고
##난다
##해주
##기사
애들
불쌍
##에서는
부정
진실
못하는
##자들이
개소리
##자를
##나오
정신차
나온
##리를
##이버
##세먼
##을때
##대한
있네
##심히
가만
##라면
조국이
같은데
사는
그런데
있나
##조작
유시민
##일이
##봐야
맞는
##경제
있으면
스스로
우한
넘어
살인
##마다
멍청
##이러
확실
해외
##원이
##명이
여성
지켜
틀딱
##은이
인권
제일
전세
투표
거지
돼지
##프로
##할때
평화
##바리
##지마라
##것은
어디서
있고
말을
결과
내로남불
공부
안되는
위한
##란다
무시
한국당
솔직
조용
바보
뻔뻔
열심히
##지면
대학
##식이
##이팅
사람은
당장
문제가
노무
국민들은
##있다
##명박
가짜뉴스
따라
##문제
문빠
여러
##보자
않는
##마디
이름
인생
밝혀
시켜
있어
##것을
지나
밖에
##동산
미세먼
##려야
그때
종교
##차피
윤석열
없애
불매
네이버
##했다고
##으면서
##인은
다들
##던가
민주주의
너네
##보네
학교
##금지
##한국
의료
간첩
안타
사형
이명박
어차피
짱깨
##부분
잡아
##는거다
반드시
않고
못하고
월급
거기
##국에
##진다
국내
대표
처음
##들과
##스트
##워서
노무현
무서
교회
##겠지만
##만큼
검찰개혁
나이
반성
##적이
정신병
부동산
나가
것도
임명
대체
##정신
##린다
과거
공산주의
안하고
사퇴
##라리
##아닌
말도
해야지
봐라
보다
##은거
##져라
하네
있냐
궁금
그러니
뭐냐
##할수
결혼
조금
사회주의
##상이
인간이
하면서
##져야
공산당
##지지
않았
학생
##이러스
보니
##에서도
모르고
##겁니다
감사
있으니
##고싶
##거라
것은
##사일
##아치
공정
일본은
하시
##수준
군대
않은
##단체
##나는
확진
종북
##거든
의원
안된다
##같다
알아
조선족
능력
원래
차라리
아는
##구요
솔직히
##가요
서로
마라
##기로
당연히
생각이
모습
혼자
판단
인간들
##으니까
있지
##시대
##하라고
어려
##해보
##다는게
평생
지가
##이들
하지만
비교
조선일보
감염
받고
법무부
##조선
##랍니다
진심
니들은
싫어
사람들은
올라
사진
어린
정치인
보는
40
##장을
##히려
이기
##놈이
국민은
##지를
운동
지들이
이재
도와
문죄인
##인거
##없고
한심한
##해요
자꾸
##국이
기본
##순실
비판
##들한테
##선거
오히려
화이팅
맨날
##말이
##르는
최저
문재인은
##자나
##는거냐
내년
##인다
하여
사라
무엇
##식으로
##하다고
사법
그거
일부
교수
##어야지
##우고
##가지고
때문
##이었
##시키고
회사
이유가
놈들
거의
위해서
하냐
찾아
그럴
##나면
태극
##가면
##이라면
싶다
##정희
장난
한마디
현재
자살
지금은
있습니다
정부는
##했던
야당
##까요
없네
매국노
지키
##상도
치료
있다고
기회
비리
알았
그동안
##자고
집값
##지요
##야한다
국정
쪽바리
##로운
사랑
나서
문통
했는데
항상
다르
애국
정당
##노총
저러
좋겠다
그나
가지
하는게
아냐
이제는
##하는건
사용
고생
##성을
주둥
친구
미세먼지
대부분
아들
##한건
기부
최순실
##에선
보이
##공자
가는
신경
##더만
##한다는
너는
##들이다
##먹는
기억
##나고
##수사
심판
박정희
존재
한다고
자빠
그건
##어버
자격
##집단
##에요
주변
라고
헛소리
무섭
판사
##가라
감옥
분명
눈치
##님이
##시길
##시장
##시아
##학생
나왔
몰아
일이
광주
끝까지
##만이
시장
없는데
그것도
드러
##되어
나와
관련
##하지만
일단
전문
개판
##군요
독립
##사파
이야기
##지게
최소
있음
##겠다고
할머니
변호
##우는
##바로
자리
직접
나올
##0년
이걸
##지마
힘내
기생
##파트
의심
어이
논리
##사람이
전혀
바이러스
##시는
##인줄
미사일
전세계
강제
국제
##도가
돈이
##듯이
##분이
기다
도움
최악
남의
말하는
##주면
피해자
엄마
##봐도
내용
심각
강남
여행
##보는
##정이
15
##사건
물어
광화
##던지
우리는
역대
노조
선택
##냐고
똑같은
응원합니다
양아치
##했으면
의사
것을
되었
위선
자체가
##하지말고
함께
그랬
##업자
##분들
의혹
목숨
인터
민족
일제
무능한
##18
철저
아마
대변
##나게
상관
##문회
너도
병원
##세력
미국이
태극기
##때는
##아도
사망
##임금
집회
##내는
노력
ㅉㅉㅉ
##하는지
돈을
끌어
검찰이
사이비
아닌데
쓰고
##이로
더럽
##총장
공감
이해가
##더라도
아닙
##줘야
위험
우파
방법
나중에
이것
한국인
중국에
하늘
주장
했다
##겹다
온갖
되어
이정도
##안부
##정치
연예
알아서
사기꾼
입니다
대책
답답
##가족
세금으로
200
##돌아
누군
비난
일을
가만히
##수록
그저
##기만
ㅎㅎㅎ
##거냐
하니
바뀌
상식
##두환
준비
##을텐데
재앙이
어쩔
믿고
것들이
재산
없음
특히
괜찮
##사고
이럴
##쓰고
뭔가
물론
##여서
##지말
말은
##하네요
싶은
##교육
말로
대응
##합시다
##상을
안타깝
건강
택시
##느라
일자리
자영
##습니까
사태
##해야한다
##당히
##많은
그러면
억울
##든지
북한에
##부대
처럼
대기업
##지원
가격
하세요
고소
당신이
자유한국
느그
##하려고
안전
하다
##정을
##하니까
##걸로
기대
것들
##선동
전두환
부터
사람을
더이상
대해
바랍니다
##만명
수출
##놈들이
에휴
대선
##할까
주사파
##하고있
젊은
페미
똑같
25
위안부
미통
기술
##온다
애초
여당
나베
조용히
똑같이
무너
보호
##이라니
##져서
일본에
##철수
짱개
오래
받을
아닐
##만에
하자
있다는
그대로
확인
생각하는
아니라고
##됩니다
자랑
##었으면
##위해
시대
##정책
##스럽다
##관계
아니지
##자기
이리
통일
##세금
##중동
##심이
문재앙이
보기
동네
##자로
가라
북한이
청문회
국개
수준이
여기서
생각해
##생활
##단다
노동
모른
##겠나
영화
##그네
2년
수도
되고
운전
깨끗
고통
##폐렴
##진핑
막말
힘든
자국민
많다
##사람들
##이트
##라니
모자
의미
쓰는
인사
원숭
본다
만들고
가진
##레임
하나도
지난
##어가
##수를
집권
진정한
에라이
기생충
##인가요
##는가
##주도
과연
들고
정은이
중국이
광화문
민노총
한국은
남편
##을거
##만한
##사회
왜구
##졌네
관계
아파트
판결
벌써
이놈
분노
빼고
##겠다는
놈들이
지도
표현
않는다
##할거
금지
##범죄
##되지
##리네
##진국
이익
##줘라
##잖아요
서울대
아무것도
그나마
##팔이
##자들은
아예
##민주주의
저게
상대
문제인
악마
이상한
최저임금
##을듯
지금까지
기가
##물이
진중
##고도
되지
봐도
지금도
##겠네요
##보내
출신
##하러
몰랐
조중동
##그러
문씨
##두고
보도
돌아가
##했네
##받아
##루킹
대한민국을
##언론
한심하다
투자
뽑아
청원
민주당이
잘못된
##한것
저지
바꿔
없어서
옹호
우선
뭐라
까지
##하려
입장
웃기
법을
포기
##명을
소득
##력을
시진핑
발언
하지말고
생겼
##으며
좌좀
대놓고
아가리
하는짓
시위
대한민국의
##댓글
##가가
##방송
미쳤
##이를
강력
어휴
없지
집에
##자도
죽은
놈이
부산
극우
##잡고
치매
본인이
두고
국방
아프
##없어
정확
##당한
저거
이래서
받는
불매운동
##가야
가져
바꾸
갑자기
애초에
##ㅎㅎ
관리
진중권
##트남
전화
할수
중앙
노인
부끄럽
인간들이
##겠습니다
##시오
부탁
해주
입국금지
##미향
생각을
##으려고
주고
사업
설치
##좌파
대한민국이
##나보네
단체
##여행
되면
올려
발전
그래야
##겠죠
죄다
바라
조심
애들이
##시켜라
이딴
유치
##공산
그렇지
투기
##하겠다
나오는
문정부
제목
##받는
한테
실제
만드
통합
##사를
##독교
말씀
##반도
청년
무식한
살고
훨씬
아버
지지하는
제정신
한국이
##질이
당선
생긴
##시킨
##가락
똑바로
행복
##수는
윤미향
##머리
없으면
##하더니
자가
##인듯
##따위
##슬람
##까봐
말아
없었
비례
안나
부족
##가능
##사태
싫다
##달라고
물러
이번에
조국은
못하게
때려
경제가
영원
##OOO
죽여
받았
꼬라지
악플
특검
##하는것
##자의
인민
우리도
##인의
##지역
도둑
유튜
짜증
ㅈㄹ
남한
나라는
주는
##했냐
충분
##서는
박원
##구리
3년
선동질
##제에
민주화
불안
##짓을
미쳐
호구
희생
##체를
전에
집안
없다고
##위에
생활
##쓰레기
12
빨갱
기사를
구라
물타
##하신
##같은데
베트남
##자식
쪽팔
미개
##학교
멍청한
##되었
있어야
##인을
자기가
##려나
혹시
10년
범죄자
아닙니다
##없네
재판
경험
신고
민주당은
환경
##미터
이러니
손혜
않나
방사
따로
##떨어
이중
##싶다
자유한국당
감성
살아라
있을까
짓거리
수십
##했지
비슷
##지로
전국민
##한번
정권이
##하지마라
##간에
직원
많아
드루킹
##먹을
##립니다
##먹은
지방
언제까지
당신은
##애들
이런거
있는지
쓰레기들
폭망
##에만
분열
만드는
돌려
거리
##이든
방역
60
##줌마
나라냐
등등
미군
##어준
놓고
518
발표
##수수
대통령님
북괴
쩝쩝
##ㅉㅉ
##는구나
##대중
운영
장사
어렵
##니깐
부르
##개월
##미애
생산
##일까
##있냐
국민들을
##기들
문정권
다행
##인들이
##있고
##해봐라
##조차
##그래
유공자
##나간
수입
매일
##부로
확진자
불러
##당에
가해
##폭행
미안
아닌가요
##19
##독재
꼴통
개가
찬성
들어가
처리
입만
기준
못할
승리
당시
##득권
우리나라는
안좋
중국은
프레임
희망
알려
법무부장관
신뢰
적당히
##오는
##였다
##구먼
뇌가
죽을
##공개
##보수
##화가
총장
한국에
저질
교활
받은
조국을
빨아
점점
ㅅㅂ
맞다
안된
인구
유지
안철수
##구석
##준표
대통령은
##했고
가면
저기
나라에서
있어서
##리자
19
##일을
문대통령
씨부
##해주세요
##집회
세상이
너같은
뒤집
썩은
##지네
정보
##말로
원전
##치가
만약
혜택
전국
##빨갱이
##000
1년
발생
##장에
하던
##하지않
하는지
자유민주주의
##재앙
공격
돈으로
##라인
인터넷
아니야
남탓
들이
느낌
요구
##하다가
가슴
없으니
감방
그러니까
일어나
##할듯
##었나
바란다
협박
고발
##이도
우한폐렴
취급
명단
어제
##있네
##어리
가르
##치를
웃긴
정의당
게임
##도로
##본다
##리기
헌법
고민
##부모
아깝
돈벌
사람도
70
무서운
바른
일어
새끼들
고맙
홍준표
##새끼들
소비
##리게
지껄
하기
안가
누굴
저리
싸움
##검사
느끼
친중
있는거
##아닌가
철저히
##대고
일본의
나라에
##입니까
##보단
정경
##님들
쉽게
관광
방사능
기득권
옛날
아나
경우
밀어
존나
##이네요
대통
##감정
믿을
대처
감정
어이가
노예
##사람은
확실히
##것들은
격리
의료진
##악한
물타기
예전
지옥
개발
손혜원
##상에
무죄
성공
늘어
벌어
결정
주식
정치를
러시아
##주기
자한당은
전염
##년이
##심을
정작
##부가
나라의
표창
하지마라
잘하고
##은데
##보다는
##도를
하긴
##보기
##들이나
됩니다
##만도
대해서
유럽
##상황
냄새
좋아하는
##때문
답이다
마세요
##놓은
그러나
뭔지
##레이
몰라
##되서
자신의
##렸다
살기
목사
##길래
이후
##겠어
##한다면
굳이
고마
##일뿐
##이지만
대한민국은
##러워
##지막
의견
국가가
##하셨
물고
통계
나와서
나오면
착각
답이
##바닥
##말을
##타령
##기관
힘을
가정
똑똑
이제와서
많네
단식
죄가
군사
달라
모양
##의를
##까운
문제는
일으
##쳐서
미국은
세상에
개념
발악
없습니다
##진짜
지구
남북
자한당이
이지
##쟁이
다녀
##때까지
어려운
일본을
손해
많은데
기독교
##누리
유니
추미애
또라이
마약
선생
취업
밝히
우린
##아버
이낙
##가를
변호사
말아먹
OOO들
##장은
##로는
집에서
##겠어요
##으라고
##돈으로
보인다
바람
##한테는
신문
없나
최소한
평등
리얼
보자
##있는데
여러분
마찬
한반도
광고
이만
뭐라고
이민
##받을
여자가
다를
##졌다
##거고
했던
아무도
여론조사
##적이고
참으로
미통당
##안하고
둘다
대출
국민들의
##있나
##우면
없을
존경
##상은
힘들어
한다는
비싸
조직
강간
유튜브
않을
##리냐
규제
##용이
대신
자기들
##하겠지
하나님
수구
운운
용서
시원
##쓰는
죽창
##출신
삶은
##으로서
안돼
##때도
##소년
믿는
타령
##준다
생기
##복을
힘내세요
거다
##짜리
##화를
대깨문들
자빠졌네
근거
대단한
기소
우습
정신나간
##연금
애비
동물
한번도
##일본
##것같
갖다
##었네
##갔다
뽑은
##일은
##보지
법이
##시키는
##십니다
등신
동맹
한명
##시켜야
##없음
갖고
떠나
없냐
##도는
자존
##이기
##지어
아줌마
눈물
빠져
맞지
했으면
감싸
왜이
마지막
##워라
죽어
##조리
쉴드
##났다
이낙연
정치적
##테니
##수수색
ㅂㅅ
##거면
말만
20대
기분
##씨가
문가
마누
도덕
##시절
철수
##했다는
##로지
주민
##했나
도망
##아니냐
통과
김대중
홍콩
필요한
검찰은
경상도
마치
합시다
##민족
##하길
죄를
뭐하는
##청산
좃선
동원
##림픽
##있으면
라는
문슬람
받아야
크게
##저리
자영업
칭찬
수가
생각하고
자동
##상으로
역겨
폐지
성폭행
어리
김일
##필요
해체
대다
##짓거리
정신병자
##농단
자본
대변인
시절
실망
##았는데
무기
##느냐
우리의
연구
자녀
##그리
한국의
외국인
##검찰
실패
##셔서
중요한
##아니라
##금을
못해
저도
##들에
진행
주세요
겁니다
일은
##시면
##것만
##나가
유니클
한달
##한거지
##속에
##땜에
##버리고
우리나라가
##을까요
가고
이것도
홍어
##권을
##위를
##책임
대단하다
##분에
싸우
##스러운
##신도
아베가
##아니고
##참에
이루
초등
개돼지들
원숭이
##하다는
압수수색
##성은
##아가
직장
문제다
한거
##넘들
봐야
좋다
이념
##무시
##아냐
박원순
외치
오로지
##었지
김경
생각은
정권을
가야
##받은
이만희
##활동
더욱
뇌물
소설
##여자
통제
##시에
세력
##는데도
이재명
정부의
소대가리
좋다고
해봐라
자주
이시
##예요
짓을
거부
눈에
또한
어른
최악의
공짜
##이에
##르게
직업
팔아
단순
인물
##당하고
뭔데
괜히
합의
문화
나온다
현대
##교수
정권의
참여
일본과
책임을
이해찬
아웃
##말은
##었다고
##으나
재난
거기에
끌어내
##원도
설명
마찬가지
와서
정은
프로
##어주
있다면
그지
##원에
##민주당
##물고
창피
포함
화가
##아지
북한은
먹는
##사실
마이
##되는데
뭐하냐
##놈들은
적극
한일
보상
##께서
##투표
으로
쯧쯧
역겹다
완전히
이참에
미리
만나
진실을
11
핑계
임기
##달라
배달
##다운
##비리
##공산당
되는데
자연
##하는거지
이유는
##놈의
당연한
나불
무지
그런거
후보
지능
##하는구나
올리
무리
물건
##시기
배신
##잘못
나쁘
하여간
연예인
구분
##원은
##오면
##질을
감사합니다
##놈은
##았네
하라고
1도
김정은이
##입국
##하고는
한국에서
##소득
소름
##모양
영원히
상태
부끄러운
나타
##꼴통
챙겨
##했는지
혈세
선진국
##었냐
현정부
300
나눠
전체
##일에
죽음
짐승
한국을
##이며
간다
별로
##쳐먹
두번
오르
##제품
큰일
##위가
##통수
합리
유승
벌레
몇년
##겠니
##조가
정부에서
좀비
부모가
유니클로
나머
내부
##든가
욕하는
##했을
##되냐
변명
공장
너가
80
후손
##와라
##수로
##으려
안될
경쟁
정상적인
언론이
총선에서
놀아
##법을
##그릇
##하시는
##네들
##스럽게
미치
##위원
버티
되는거
활동
하야
##감이
전문가
##있어
##럽다
중국에서
##시요
불리
##운전
전형
욕먹
되냐
##이자
##었던
정권은
##내서
##줘서
##위기
##안이
하게
원하는
세뇌
##대한민국
민생
법무장관
불편
##지에
불쌍한
반도
순간
있지만
만들어서
##관이
노래
##주택
움직
듣고
##쓴다
##빠진
전교
마누라
안하는
##사람들이
##친다
##벌레
1억
문재인과
단어
임금
않으면
##스템
##석희
국개의원
함부로
충분히
달창들
좌빨들
위에
하더니
##으세요
맘대로
일부러
##보세요
저딴
##나네
내고
분들
알지
배우
##해놓고
##대를
봅니다
초딩
팔아먹
##겠는데
음주
있어요
만큼
아빠
##많이
공천
세금을
##꺼다
##발이
다시는
경제는
찬양
천벌
##리아
황교활
##전쟁
##보험
국민에게
##기전에
맞아
##임을
잡고
##르스
##거리는
##해봐
좌파들
##앞에
나라꼴
동의
보복
반미
벌금
##스런
개학
##디어
##하려는
예산
빨갱이들
##위로
하라
##정당
사실을
지금의
거기서
##원에서
주둥이
##는다고
##드립니다
달려
결론
검색
##아리
시급
뭐야
이혼
부정선거
##마트
성장
있는게
고려
대통령을
애들은
##라시
##할것
사법부
너나
이어
##안에
##제를
챙기
##셔야
모르겠다
산다
느껴
살려
자위
말한
##고있다
한두
혐오
90
조만
목소리
##원전
없다는
클럽
##방에
##즈아
##판에
무뇌
대화
부패
모를
모조리
머리가
##아이
##았으면
너거
자체
##인도
양반
한미
##잡아
영향
찍어
영웅
논문
##기나
중소
지하
국민세금
##있음
##지사
왜곡
안해
기도
박그네
201
하는구나
지지합니다
아이들
##이죠
자유당
##줄알
그만해라
##따라
보유
비정
보통
##는것
운동권
##서야
##레스
이라고
##대의
윤석렬
추종
##리라
명예
예수
심지어
잘한다
##하긴
##상태
생명
틀린
하지말
고용
##씨는
당당
##리나
타고
의무
소리를
대박
이성
새로운
사장
괴롭
##국의
에이
##에게는
##치면
일본으로
스트
예배
이분
##회사
속이
겨우
##하지마
꺼져라
당하고
##의식
##세상
아깝다
복지
했다고
참고
##라스
하여튼
김일성
##장에서
어째
##쳐라
이용해
그렇다고
##치기
몰려
재미
건물
갑질
아침
##패스
##저기
##나온다
난다
차별
장기
##안함
위조
문재앙은
##석이
폭행
욕을
주제에
##노조
##재산
그만큼
치고
떳떳
##신이
사죄
돈은
ㄷㄷ
이란
입으로
##하시고
여론조작
언젠
민심
옳은
정도로
이다
임대
재수
보이는
먹을
##아님
##더냐
제품
보여주
안다
고위
봉사
경찰이
##되는거
##타고
근무
##소미
상황이
엄청난
북으로
중공
정경심
##대에
##제가
갔다
##곳에
저는
정신차려라
질문
평소
같아
전기
수백
데려
##른다
후회
시험
한남
취소
무섭다
폭력
아버지
모두가
##10
이런게
생각하면
##알바
남은
##선을
이명박근혜
국민들에게
대한민국에
특혜
손석희
멀쩡
바닥
##하거나
##겨서
##만으로
##버리
동안
##죄로
재벌
##는건가
지급
설마
그렇고
맞는말
증명
##제도
##비스
쳐먹
중에
일도
##그만
##정권이
국산
된다고
개나
##롭게
사상
모른다
##비가
##져도
조만간
##새키
일하는
##수의
##국으로
망해
적어도
권력을
김정
메르스
가지가지
입에
##이유
가득
##했음
지소미
기관
하려고
인성
중국몽
아이고
마음이
오지
사회적
올림픽
몰라도
절대로
##발전
구조
높은
위협
박근혜가
축하
앞에서
징역
##들면
파악
다니는
그것
졸라
이득
방탄
대중
##년에
뒤집어
김어준
충성
ㅅㄲ
너의
문재인을
놈들은
음식
정유
이정도면
##지나
##주가
남자가
해주세요
이쯤
##내야
모지
지겹다
쓸데
않냐
신도
허위
계획
##의가
##좌빨
##가도
##20
겁나
하며
##봐요
신상
나대
군인
우려
##만들어
말이다
500
##자인
여기저기
가자
박살
추천
##리도
##였는데
##는건데
하지마
유치원
##이구나
차단
안나오
##bs
저건
이전
꺼져
낫다
사드
유리
없어요
데모
##격이
##님은
정치적으로
##석은
##한척
뛰어
##느니
풀어
##제동
인증
##주지
국익
이것이
남녀
##이터
식민
시끄
##이여
경제를
##세를
##신문
연금
알게
##좋은
##건가요
줄어
잘살
##사기
고등
정치인들
잘하는
##과는
##남아
맞고
뿐이다
오직
행사
##대변
지네
경북
공약
##봤자
##부는
##함을
이슈
앉아
##덩어리
##대응
경기
비핵
##경이
안달
##통합
적용
민식이
데리고
##으신
##BS
아이가
예상
정리
이런데
않다
생각한다
20년
죽이고
걸린
5년
흔들
##마니
##성장
기록
##히고
자영업자
각종
전광
##빨리
친북
##간첩
거야
지시
힘들게
되나
##개발
##것처럼
훌륭
해야한다
버닝
##정부가
##매매
고작
부들
##라마
있어도
##음이
탈원전
공급
정의로운
그러게
##차별
트럼프가
##공화
##하다니
중국의
부자
하니까
시간이
##법이
##하지도
유일
한게
##었고
##유공자
여자들
##해줄
연봉
피해를
반박
자존심
##망신
두려
##이라서
너희들
썩어
공공
##되나
해당
놀고
##정보
베네
그만하고
개돼지로
죽일
##오고
전교조
##하나요
##는건지
코스
##시나
깜빵
##명한
못하
##해주고
##당을
##려도
제외
생각합니다
##래도
##리는데
미개한
죽어나
아닌지
문재인의
총리
사전
중도
##래기
제2
##추행
알면서
인간은
##정부는
##에겐
##계가
매우
지령
리얼미터
##여야
안되고
민간
많아서
연기
만세
기사가
##bc
웃기는
도로
##할수있
##지못
감히
죽이
정신이
##학의
##인들은
남성
일베충
비행
김제동
뻔뻔한
제가
때문이다
막아
산업
##해지
##원을
##30
비싼
##동네
할말
##군이
안하면
##사람들은
작은
##재판
지적
적폐청산
##자체
삭발
##💙💙
살다
통해
##제로
##대도
잘못을
오늘도
버스
장애
청산
다른나라
##럽게
개입
##가며
북한으로
북한과
이겨
안됨
보면서
짜파
반도체
버리고
##했어
##세가
고집
##만을
이승
##점이
##시죠
##시켰
시키고
비례대표
하는건
하셨
자신이
탈북
달고
꼰대
##리다
수많은
중소기업
전광훈
어떻게든
##있지
무시하고
##리스트
신기
##을수
##경찰
장학
##교회
마시고
조롱
모르나
앞에
분이
인도
민폐
##으론
##관련
신천지가
특별
너무나
같습니다
##었어
남아
조작질
##고있네
##바라
##위한
내놓
문제지
담배
##할게
##바른
떠나서
돈도
진작
지소미아
염병
##잡이
##됐다
건드
##때마다
전염병
판매
##만들
인간들은
##워야
##히는
##구멍
이래도
폭동
다가
키우
참석
##반대
미국의
국정농단
##쪽으로
##기자
내는
올해
##한지
장악
##장으로
여전
같아요
##했으니
윤총장
방해
것들은
추가
지지자
추방
가즈아
##세대
##었음
지식
##시마
좋아요
못한다
인재
해놓고
##시킬
##일도
교통
이라
미국에
##처리
떠들어
##이니까
할줄
있나요
가난
못된
추경
약속
##장난
공평
기사는
##매국
당신의
##엘라
말라
보수가
##하에
원칙
최대
##때가
어쩔수
##논리
당신들
##한가
##권력
지지율이
##할려고
##단이
##박이
부담
남을
##처벌
뜯어
##없으면
죄인
힘이
##르면
한나라
북한의
##끼들
지금이
##거임
할까
##정도로
이니
자본주의
기자가
ㅇㅇ
독재자
##비를
비상
엉망
올랐
도움이
##50
가치
##위는
보소
##in
중국과
최고의
##성애
하는것
##가네
참나
##있게
##기지
청구
확산
실수
안됩니다
##가자
##탄핵
해산
##좋아
국가를
스트레스
##민이
불가능
상대로
있게
##함이
우습게
##다는걸
자격이
처먹
##부들
##하죠
패거리
##아들
화장
이순
##통일
끌고
##선이
뭐니
버닝썬
저능
싹다
언급
조장
1000
떠들
##규직
주면
##자체가
한마디로
##답게
성범죄
살았
효과
##년은
##빼고
목적
##때부터
##애들이
때는
보네
특징
##여라
고유
폐기
주인
##시지
근본
악질
불쌍하다
오죽
구매
부분
##업체
개뿔
순실
하나같이
하고싶
그네
맙시다
##율이
14
##도안
이언
제주도
정치에
삼성이
##고싶다
4월
21
한걸
영상
안쓰
성추행
거냐
정답
##국을
##으로는
##리들
##었다면
교사
##하든
##청원
##은게
밥그릇
이사람
살아야
부추
이번엔
손가락
##생이
더한
우리국민
티비
일당
##지키
태양
싶어
##로서
##싸움
눈이
털어
자식들
수치
보세요
인해
##것다
집어
##후보
17
##는거임
김경수
보험
많고
보이지
##장도
##일베
##리세요
구역
망할
##중에도
위반
시청
##격리
전략
##였으면
##인드
가게
##날이
역할
국민연금
못차
##줘도
##결과
망하게
퇴출
##치한
인터뷰
##안을
은행
써라
##들이네
미래가
##기면
지금이라도
열받
온라인
세상을
##정권은
40대
##개가
에서
명복을
재앙아
##나라가
알아야
##가는데
ㅈㄴ
자동차
##다는건
검증
##하시길
넘들
##렸네
선전
핵심
그것이
대한민국에서
아닐까
##인게
##마냥
##되어야
##에다
##시간에
출산
궁금하다
전형적인
어울
있구나
우리나라에
문죄앙
니들도
젊은이
##자연
것입니다
돌아다니
끼리
##내려
##모르
말자
서초
되겠네
어지
##구니
##하는거야
무역
징징
해보
##BC
인상
시민단체
노릇
##일세
##총선
##내라
어쩌고
역대급
##부장관
국가의
불구
##합니까
불과
환자
이미지
망신
16
욕하고
아닌듯
욕심
깡패
##프레
##준다고
진심으로
##인척
해명
##버려
여자는
##치지
##해봐야
##재인
안한다
재인
##다리
##보복
##년도
계산
파렴
중앙일보
새누리
찌질
##비는
1위
비핵화
적화
바라는
보지
대북
시킨
어떠
현금
생각도
##시설
##부를
없어져야
자료
김학의
##없는데
독립운동
행태
하다가
어디로
##만은
덕분에
뒤에
못하면
끌려
처음부터
끝나
못살
이새끼
누구나
있어라
서민들
죄송
##되니
##후에
##아니다
찍소리
평가
##보도
##다시
빕니다
##당의
##도소
같음
조센
##지니
30년
니네가
##들이랑
##id
##구로
##십시요
맘에
그딴
성과
있던
능력이
##크로
##걸고
동남아
뒤에서
##통이
독일
##하지말
업무
위기
늘어나
북한을
나아
놀러
시국에
기사에
부모님
##가다
할일
안타깝다
##취급
##인사
앞뒤
왕따
##영웅
##잔아
같냐
##세로
네가
##인건
오른
찌라시
새키
건설
테러
##호사
##분열
하네요
##마스크
짜파구리
##못하는
##틀딱
제재
검찰을
관종
5천
같네요
뿌리
##라라
성매매
##수호
하겠지
##는거고
현실을
동양
거래
언제부터
압박
##만의
모든게
태어나
어케
역사를
##혀서
세금이
##하하
대우
좋은데
나서서
청와대가
##가나
모르냐
##감을
##미가
##하던데
죽어라
##수석
전라
경영
##아는
또는
소신
지들은
그러고
ㄹㅇ
내세
##수있는
꼼수
##들이지
##스가
동참
않습니다
한겨
##마저
박사
퍼트
##으라
조폭
그들이
실업
도시
##났네
정의를
늙은
시스템
카드
##on
선거법
##겠습니까
안정
그러냐
조국의
##인으로
지들끼리
청소
##사업
국가에서
이루어
영어
##가게
역겨운
작작
이런걸
##저씨
인데
##하자고
보낸
##비로
##했습니다
혼란
##된다고
##거같
##권이
추잡
##러움
수고
홍보
##으러
배운
정책을
빨간
##피해
##았나
##0년대
강화
가해자
자국
##하는거냐
코로나로
경기도
사실이
##데로
피의
드라마
기업이
문재인대통령
##싫다
개같은
안하냐
입학
모아
##거라고
##충들
##처먹
나오지
##만하고
이사
##나와
포장
정부를
수사를
논란
집행
천안함
감성팔이
여경
##랜드
일이다
##적폐
##닫고
30대
강요
둘이
반대로
##화자
다만
후쿠
##리는게
했냐
심상
##한거다
죽어도
나랏
거짓말을
##보소
폐렴
갈수록
이길
13
보니까
갈아
대충
할수있
베네수
시켜라
2차
절반
진단
상식적으로
않아
족속
좌우
환장
과학
대가리가
의도
애가
이재용
아무런
공직
##보이
##지기
아래
##가면서
##계를
##영상
너희들이
아니지만
##센터
##식을
##하겠네
장자연
몰고
허구
출마
파업
할배
집중
##네ㅋㅋ
발광
##마리
이웃
##되게
비용
니는
이하
태어
##저히
힘들다
1인
것으로
건데
당신들이
머저리
검찰의
수천
##an
##자금
했지
합법
##맞고
##당과
실력
이를
유승민
장학금
헬조선
##벌이
소속
그들의
요즘은
필요하다
뭐지
자유대한민국
공산화
상처
##하더라
독도
반대하는
황교안이
명분
인간아
여태
##관리
##곳이
살아있는
##집에
야이
지역구
얻어
바쁘
댓글이
댓글조작
같네
##쳐먹고
미국과
표창장
짜고
##좀해라
한사람
##안되는
##하라는
##국민이
뭐하나
##점을
##기다
대법
망가
들어오
##대상
10억
조금만
그정도
##을것
개인의
##했지만
##청장
민정
필요가
대형
##르기
일본에서
##말에
쏟아
아는데
##화자찬
속보
기어
##양반
##없지
행정
##물을
입맛
시행
##할지
##하려면
##북한
사람들도
이런식으로
##님의
##주의자
한가
##해주는
안되지
##겠군
하겠다
##정권의
바퀴
##답다
음주운전
##만하면
된다는
의문
##주민
시켰
##스타
전자
##모습
##국은
##못하고
그렇다
##버린
내일
##봅니다
총선때
알았다
##회에
진영
쓰면
##한테도
집구석
##사에
유학
##나니
앞장
나가서
남이
경고
존중
##대강
소중
##다른
##시작
##하노
고향
뭐든
알아라
일관
폐쇄
예전에
##을거다
##기술
##집니다
가족이
##쳐야
게다가
죽인
그러면서
대상
사라지
##고생
##소년단
사람의
인지
교도소
후쿠시마
추진
자화자찬
##십시오
분명히
싸이
악의
##리는거
정도면
어린이
##행위
세대
##치네
##새기
밝혀라
거품
했는지
##사랑
좌익
##였네
싫은
##지않고
시키는
도와주
세금은
언론에
마련
증거가
##빠리
##진이
않을까
저걸
되어야
##이스
나머지
중국을
협조
봉쇄
##분들이
말인가
개무시
##마음
안되면
기존
##거는
##병원
말이야
##적이다
##지영
지는
##답니다
몇십
코로나19
제1
최근
싫으면
##한걸
말라고
행동을
매번
모여
마땅
수시
올린
##드만
올리고
댓글을
##하는거다
분들이
양심이
위로
구린
문어
##리니
##줄이
끝이
퍼주
##친구
##ㅅㄲ
##었는지
##없다고
##둬라
99
찍은
유투
애쓴다
오만
이순신
울산
##물에
결국은
걸레
더듬
##보호
##추고
차려라
##리즘
근로
##바뀌
길거리
어딜
##너무
##있다고
##다는데
장제
##이래
동성애
들은
##법으로
##색히
##그런
개그
##야말로
##제한
대비
다름
위선자
어마
날이
더럽게
##서도
순수
시체
여야
##25
##걱정
좌파들은
방탄소년단
##라며
##없어서
먼지
스타
댓글들
주변에
간신
결과가
클라스
##자유
누구를
이시국에
정수
줘야
좋았
아부
적자
걸려
가까
##미디
살면
똥꼬
끔찍
##해야할
정권에
심각한
이단
수꼴
##내가
##성에
##시네
베네수엘라
##알고
##산업
저지른
나간
##명은
저정도
##듣고
##서서
좌표
오지게
대갈
요새
소득주도
만만
웃고
파탄
이넘
글을
나라도
애기
파괴
받아서
방위
부부
지나가는
자발
무능력
##쳐도
절라도
검찰총장
##격을
지하철
틀딱들
하수
오염
상승
##코로나
말할
나라로
모르겠
##얘기
차기
호남
##인것
날뛰
##못한
단속
수석
투명
건지
감시
감옥에
구역질
아동
##시켜서
##겠지요
부디
싶으면
커녕
작년
##십니까
탈탈
미래를
사람들을
뭐하러
자식이
##정의
다같이
어서
착한
한참
##살이
가능한
닥치고
##보다도
원인
암튼
정부에
멍멍
아들이
##거품
수호
서비스
갈등
블랙
읽어
큰소리
목표
##용으로
놈은
실제로
하던데
누군가
##명의
##이라는게
안맞
이탈
대국민
##가냐
마인드
핵무
라도
프랑
하는짓이
이쯤되면
초기
제한
그쪽
말하고
전파
할말이
안그래
하늘을
##말도
##앞에서
##사로
조국과
가관
박수
진상
국민과
계약
##갑니다
보고도
무엇을
##긴다
통합당
투쟁
제2의
나오고
태극기부대
하려
##적은
##르신
새끼가
##다니는
수령
망한다
중국인들
##인간들
##파악
1등
웃긴다
넘게
##상공
##인걸
건가
인천
##받아야
상황에
##대변인
180
##능력
대학생
어느나라
폭등
안할
영업
##꼬라지
돌대가리
머리에
말하면
문천지
##다녀
광우
나라다
망언
##지다
언론사
면상
반응
유명
살게
저런게
않게
죽는
맞네
##차가
소리가
여전히
문제를
받아라
주한
##승리
인간의
##로만
명령
박멸
##외교
나라망
저것들
더럽고
특정
##여도
연합
없네요
일본도
사시
##드라
실험
강제로
##하구
옹호하는
그러다
조선시대
일상
당대표
##회견
##었을
##내자
반복
협상
##경북
파면
##적을
##년간
##사퇴
걸고
배상
##겠는가
드디어
미국에서
기름
의해
공포
김진
물가
##무리
하는거지
##끼고
임영웅
나경원이
할때
휴가
생각좀
어느정도
##이라며
##아주
##했다면
상황에서
##하겠냐
##줘야지
못하면서
##운데
방향
색히
자유를
신청
식민지
모욕
##나도
대통령도
남자들
항의
##서를
##폭탄
31
공작
처단
해석
요청
잔인
##지말자
##경욱
강경
다이
중국으로
떨어진
##므로
##하겠다고
우덜
##중이
와이
그들은
넘쳐
돈만
비열
해봐
달라고
##이란다
이기적인
김치
후진국
올바른
댓글에
잘해
##구라
일본인
##써라
의식
##성도
##있으니
자제
말로만
이나라가
쓰지
##어놓고
##들여
사무
어딨
##리카
않았다
좌파는
##겠구나
없었다
사실상
것이고
이따위
끝났
##전문
붙어
노답
##았냐
옆에
저래
##시가
##그램
우리나라도
박영
##행동
인건
공산국가
박근혜는
무서워
비슷한
##조치
KBS
특수
어디에
나만
분위기
사망자
##지도않
대통령의
명백
아닌거
정유라
먹고살
##된거
보내고
있었다
정확히
상상
일주
방문
##으로써
##정에
기레기야
귀족
몇명
당연한거
억지
왜냐
##뿐이다
타이
감당
마녀
##못해
##들이야
잘난
##으셨
빠는
##님을
조치
##간이
미국도
당한
밑에
당사
막고
배려
죄값
왜이리
대만
문재앙과
나무
##종석
말해
애플
아시아
##마자
##폭망
##이구만
##종교
모습을
것처럼
북조선
##번째
##공감
그놈의
도저히
공동
살면서
##얼굴
##마이
민경욱
자가격리
있었는데
안들어
적이
##바이러스
이것들은
##조국
코미디
##먼저
대다수
강력한
이익을
침략
이러다
먹여
이나라는
##해야함
아닙니까
든다
해먹
##자에
##제는
##총리
##어진
민낯
##내용
여기에
상황을
신경쓰
무료
기레기들
##중국
자극
언제나
기초
##겨라
부들부들
편가
할것
더불당
부인
이런건
##봤다
인기
한데
입시
이유를
유전
이용해서
떨어지
들어서
이와
2주
##률이
##을려고
##넘이
##너스
학생들
살인마
보장
자칭
##버려라
말에
개정은
놀랍
아픈
걸리면
몰래
정치는
벗어나
##법은
전정권
중간
모습이
##원들
##긋지
강한
한국당은
이유로
좌파가
##할꺼
##수당
역겹
맞춰
##왔다
들여
열면
이럴때
##았다고
없애고
태양광
견찰
중립
없지만
##등등
않음
##겟다
프랑스
소송
어쩜
선수
##사도
##하자는
어떨
##였음
사리
정부와
코로나가
동일
법적
##라는게
국민들도
애를
토론
##이들이
##당시
공식
##올라
##대학
입을
입고
영혼
받으면
수업
##어죽
얼굴에
공기
##다니엘
##원봉
고맙다
24
유가족
소방
##드폰
코스프레
##몰이
##행을
이모양
객관
매달
낭비
##할텐데
##걸까
후원
조센징
새벽
아닥
전수
##새끼가
서서
이끌
##는거죠
이꼴
##놈아
개선
패스트
발목
딸이
##만원씩
##ns
무서워서
탈출
##자에게
식당
뒤로
##일로
##마나
휴대
지지자들
##내면
##렸는데
범법
##애들은
문빠들
##구가
보수는
한국당이
협력
지원금
##잖어
웃기네
비서
##개입
##하느라
시켜야
##냄새
이라는
화웨
일본한테
사면
양보
##중대
##리며
없구나
오는
##지마세요
조민
때가
##이런
안들
소리하고
##겁니까
대답
정신좀
가려
정체
##국에서
동생
##적도
어르신
##MF
##하는것도
한걸레
재앙이가
보여주는
##시위
##사진
법원
제조
##질러
##자다
자기들이
그에
편하게
##순간
##달창
두둔
김진태
사서
질질
OOO아
김종
사유
##이란게
비호
치는
그돈
하루빨리
끝날
선관
##산다
사는게
##수저
##린다고
바다
##든다
##우리
##까지는
이언주
공지영
웃음
정치권
가족들
부끄럽다
##질은
외면
외치는
##아나
위장
연결
대구경북
환영
차지
##기네
답변
##비용
##오지
기자회견
##방이
##의로
##일듯
앞으로도
##년전
무릎
인가
훈련
살지
##2시간
일으키
강하게
제거
얼른
##감염
금융
무엇이
주둥아리
시기
왔다
한글
바퀴벌레
바뀌면
맞는데
비롯
중단
##노동
##모가
잘못이
조건
같으니
어짜
##운영
##라지가
국회의원이
할거
안된다고
고인의
증가
못해서
말아야
의전
권리
000
근혜
##가는구나
목포
현정권
종식
##놈들아
슬프
권력에
기자야
##놔라
##였던
인식
키워
있는가
말아라
##하잖아
인정하고
사회에
지진
##ㅈㄹ
산불
떨어지는
##투기
대가리에
이지경
##동맹
한다면
자리에
빠진
말장난
##당하는
혁신
정치하는
##회담
##자들의
맞게
##스터
업체
했나
롯데
##하도록
북에
비행기
강다니엘
주한미
마트
보냈
피눈
##들로
정직
##xx
##살인
죽고
좌파들이
##드려
##의도
마구
양심도
##을지
견제
불만
##하겠다는
비겁
차이
##한거야
##문화
반일감정
##다음
매년
못받
했네
걸어
똘마니
믿어
가증
시대가
##카페
태풍
##해야합니다
차고
개돼지들이
아무나
나누
긴급
한쪽
불륜
공정한
식으로
잘했다
##실히
##기위해
인류
질병
아이폰
이것들
##성공
법대로
안믿
##걸이
제대로된
몰라서
아우
하도
되었다
법은
소통
역적
##구속
한겨레
경호
연락
있네요
싶어서
##er
##여론
민주당과
치우
##배는
##넣고
마음대로
어떡
하지않
구나
##정하고
잘한
신천지는
김성
##사이
##인생
투기꾼
원내
일자
편의
##징역
##자와
##나지
박탈
글로
살자
지경
멀쩡한
해외여행
일제시대
기업들
발악을
말대로
수익
##코패스
##거래
##것같다
줘라
##힌다
##인데도
그러지
저희
미성
시간에
에효
##점에
##사냥
알았는데
퍼뜨
모르겠네
##장님
탄압
##였어
아이들이
##주를
새끼들이
극혐
구입
민주당만
##👍👍
##노릇
##리오
##선언
어쩌다
들어간
아니네
##드러
아름
##할래
그런가
좋게
스마트
역사에
##알아
국회에서
##아버지
먹은
##그냥
##이지요
주도
엄벌
다죽
학원
IMF
비하
미친거
할려고
일본여행
답답하다
##었으니
이나
##지랄
장관이
내란
몇번
##끼는
배웠
거기다
어머니
지배
성인
##태우
제공
수작
모여서
석방
어처
##나다
작업
광신도
시대에
생색
##모두
안받
맞다고
정치가
한표
좀더
모지리
막아야
부대
청와대에
아쉽
다는
차이나
정신을
뭐고
##긋지긋
모든걸
##차는
너희들은
자진
안먹
진짜로
금방
##아니면
청와대는
단지
꼴보기
정의가
마스크를
##버렸
##량이
평균
핸드폰
##거부
##겠구만
들먹
훠훠
더러
법안
수술
사회가
잡아서
중심
얘는
없애라
간단
##하고있네
##지르
댓글부대
비정상
아녀
##여러
##치게
권한
##무슨
천지
각오
발사
남자는
학부모
##모로
##평등
쳐다
##단을
물려
##에게도
웃기고
##같네
##불가
기회에
더더
제시
썩을
분리
모르면
투입
냄새가
시도
된장
느낀
##최고
할머니들
누가봐도
똑같다
커피
능력도
꼬리
##번에
그자리
백수
##자들을
휘둘
##해준
##점은
검찰에
엉뚱
##부지
##시네요
여기가
세워
##지오
대통령으로
보내라
##인멸
문어벙
##엄마
##하고싶
재밌
##만해도
빨갱이가
##기야
##한거냐
들아
깨끗한
어짜피
허허
다를게
없는거
##펀드
서초동
##스러
기자님
우롱
여자들이
##시급
정의연
개독
##ㄷㄷ
리더
50대
이완
##메라
사례
안간다
전범
침묵
머가
죽을때
##꺼야
온통
지긋지긋
##정한
##중인
어처구니
베댓
##주냐
비하면
##자만
개검
##수준이
며칠
나오네
##경영
침몰
##수밖에
차명
싫어하는
필리
##리면서
빼앗
짓이
##했어요
어리석은
자세
##40
마음에
살아남
특권
많음
필요없다
될까
문닫
슬슬
제도
정확한
보건
영국
##우파
미래통합
감빵
##으려는
아니잖아
##평화
재인이
##하구나
얘네
똑같네
공안
국민청원
그림
학살
낙태
행위
전면
##었습니다
안되나
인간을
이대로
가입
##지않은
수도권
위대한
##안보
문재인정부
##폭력
이간
##개를
##금이
##대기
안보고
말이냐
정말로
뒤통수
##였고
법치
폭탄
한녀
##라구
지역감정
다스
##곳에서
확진자가
전국민이
야당이
해골
멀리
주범
##판사
##년을
##테고
##아프
으이
출근
김정숙
좋아서
ㅁㅊ
그니까
막을
##문이
우리나라에서
안해도
수구꼴통
고대
죽이는
우리를
##하는가
아저씨
내려와라
##까리
문죄인이
나라꼴이
넘어가
소상공
못믿
열등
##강간
조상
자신을
적은
##어마
부칸
##차를
공짜로
##졌으면
자신들의
##같으면
##신고
##으로만
##버려야
빨갱이들이
잘못한
싸그리
##년들
좋겠습니다
##는거네
수장
극복
증거인멸
일방
없어도
이것들이
표를
아마도
##공화국
충격
TV
낮은
자들이
주택
정권잡
이승만
확실한
보다는
##막고
시발
##서가
##나라도
문재인도
강행
삶을
##메디
더불어민주당
OOO들아
끝나면
방어
##위해서
아직까지
##시키면
고만
##점에서
휴대폰
##거리고
아이를
저능아
좋고
##할거다
취재
##발언
확실하게
있었던
##항공
##맘대로
너희가
##세끼
법으로
여기는
땜에
##비도
아까
아쉬
할듯
자기네
무능하고
내리
없는게
##안되
##분들은
낫지
안내
앉아서
##수있다
언론은
아프리카
공유
##소가
사모
좋겠네요
것인가
쓰러
사세요
역시나
진실이
기자들
새끼야
뽑았
애미
고스
박영선
올리는
안한
##소나
##집권
집을
전원
일삼
현장
##개념
까고
##비에
좋지
어용
##지않나
끝난
눈치보
인물이
##랍시고
잘도
악플러
본인의
끼리끼리
했으니
나면
매출
대접
터진
##겟지
거덜
아니라는
도데
##공무원
미투
무소
##갈등
##는것도
공무원들
가능성이
##동원
어디까지
잘라
곳이
구걸
훌륭한
이자
한건
맞습니다
##친일
##트랙
##기간
걸로
쪽발이
돌아가는
##입고
결과는
##하기도
도입
주한미군
##찍고
누구는
무기징역
##상에서
##주니
LG
따지
아니니
인턴
지내
손잡고
##충이
##부러
인간들아
503
있잖아
안되는데
배급
했을
제출
주댕
정치인이
김영
##이게
##민들
넘는
##린거
미성년
##세기
성적
교체
부활
싸가지
##이익
모르겠지만
유사
##셔요
죽으면
인종
이러면
목숨을
나름
비웃
회복
어쩌라고
갈라
이런기사
뒤지
##속에서
##맙시다
불가
##사상
시비
피해자가
본인은
조국딸
꼴이
##통에
평범
##분은
다음에
이정부
댓글알바
방구석
쳐먹고
##고있는데
너네가
행동이
민좃
구경
일개
가까운
보고싶
차량
##보여
장제원
해줄
유죄
##하고도
새로
징글
##or
지도자
깨어
조사해서
모르지
주지
##할줄
생겨
싸게
받지
청와대에서
##주자
##졌는데
##성과
어쩌구
철저하게
의미가
심상정
##tbc
앞잡이
밥먹
상위
만들어야
대안
먹어
##이후
금액
##왔는데
사악한
추악한
현실은
##토록
4대강
##었다는
당당하게
이제야
있겠지
##국당
트집
해외로
##조를
##영화
지속
청소년
##하겠습니다
##신을
##아먹는
도발
했고
수단
천박
##페미
##이요
##상관
진작에
##간히
정치검찰
망쳐
##조원
잘했다고
더블
졸업
국가에
마녀사냥
쓸데없는
한방
다양
##하실
좌파들의
똥개
대깨문들은
않나요
##들이고
오면
만들어라
맞음
매장
##사무
##량한
##지원금
소릴
엄중
당신도
있다가
있도록
##보내고
##노무
##봅시다
##면피
정도는
##조직
주장하는
해요
두렵
##속으로
하나만
내려오
대권
연애
좋으면
사라져야
공익
하다니
##터리
##기준
아베는
##바꾸
공항
2019
안사
이정권
sns
범죄를
망하는
알겠다
원자
날려
위험한
조카
했다는
##처먹고
북한에서
도데체
##내지
##문서
##구려
싫어서
##연히
한국인이
##사람도
당하는
##거든요
민정수석
부품
상속
##주로
망치
##양이
##치료
기획
억지로
##우지
국가와
대가
덮어
돈주고
보게
##꾸로
나오냐
아니라면
명심
마스크도
말이지
##질에
만원
허용
##혼자
감동
##적이지
##같아
##해진
부탁드립니다
삭제
##살아
방법이
어마어마
가야지
써야
작전
부끄러운줄
박지원
울나라
##파탄
조금이라도
하락
이땅
마이너스
완벽
파헤
##였나
사람에게
##국회
##스럽고
박원숭
##력으로
좌파의
못하냐
##고기
625
##86
우리나라를
까는
고문
뻔히
##났는데
수상
주작
정신승리
하든
##문재인
100만원
동조
우방
라면
임대료
고유정
##인권
전세계가
실천
##께요
예의
병역
조사해라
오랜
##인에
##2년
##갖고
쩝쩝이
동영상
못난
음모
기다려
##떨어진
눈깔
숟가락
문통이
무고
돈에
해대
##15
읽고
구멍
대로
잡혀
##어디
##추어
유투브
코메디
##없으니
종북좌파
마냥
되니
사냐
슈퍼
##생겼
##절한
걸러
남조선
그때는
갑니다
찌그러
##준비
나빠
살길
##었지만
걸려서
못함
##되었다
##100
##것네
안하
##근성
본인들
##목사
##환자
##게이트
대해서는
다해
##자료
기각
체포
찢어
일본제품
퍼주고
##서에
제정신이
월세
입이
신분
걸렸
##징글
파렴치한
위원
##사항
##들어서
##돈이
그의
##플레이
##기와
설득
기가막
하나요
빠른
##이크
이놈의
무장
항공
##놈을
들어가서
됐다
##욕을
##짓은
몇백
##오르
민주주의를
##망이
##것들아
마음을
비밀
##박살
##납니다
되는지
하느
전과
즉각
노인네
##달고
kbs
빤스
아내
각자
제주
유족
전남
탄핵이
윤지오
##해주면
##일텐데
좌빨들은
신념
있어야지
것만
조국수호
저녁
##곳은
정은이가
손을
넘이
멋진
##소를
편파
안타까운
##간의
원내대표
##에서만
먼저다
있으
한강
##투자
글고
받게
판사가
때도
##지않는
딸은
##못차
##직원
나은
개돼지들은
일반인
##선수
여가
##립시다
철면피
던져
##치도
##당으로
##인간이
유시민이
한두번
국적
동양대
그만좀
##리려고
##겠음
관심이
정부탓
교주
손바닥
##것이고
트럼프는
상식이
민주노총
##드네
##산이
정신차려
##한텐
##던거
##했을까
생각하지
못하지
죽어야
##대국
부역
##부인
전라도는
윤석열이
다음은
사는데
##무능
##센트
누군지
##싫어
사과를
추락
맞나
앞세
유학생
팔고
##풀이
소주
나오는데
날아
내야
폐간
머가리
##없나
숨어
##봤는데
선거때
결론은
##대해
##소에
##놀이
하더라
후에
##관광
소용
##소에서
만족
실질
잡는
나갈
답다
##인거지
차이가
장군
전부다
하나로
모자라
나발
이뤄
흘러
동급
##하의
다닌
##사관
##효과
민주당에
국민들한테
근처
들어갈
공소
최소한의
그대
무상
있으니까
처벌을
##정으로
빼돌
이탈리아
##년동안
뉴스에
방치
세금도
남편이
사람만
검토
얼굴이
허가
##보니까
##력은
하고는
많아요
저럴
조차
##세훈
통화
##판결
권력의
너그
오바
비리가
어쨌
그땐
##유총
##층이
관심도
보이는데
무한
##세계
듣는
##우기
짖어
대통령과
기원
안남
이동
혹은
##나온
엘지
택배
시나
주차
##리에
국무
될듯
늙은이
변태
##같음
##질로
##하진
못배
##수하고
선거에
경찰은
쉬운
망치고
##위반
##만들고
문재인씨
유일한
아니죠
극단
기어나
생겼네
끝나고
유출
중국한테
##으로도
모름
놓은
##경우
##래요
들어갔
진실은
쪽빠리
##디언
들어가는
##차고
입장에서
법의
공기업
##넘어
유포
##향이
##할것이다
반납
페미니
확보
##대책
희망이
친문
최저시급
등교
패스트트랙
##분의
##😱😱
피눈물
##리트
나라경제
살해
작살
총선에
밀고
똑똑한
##대지
여당이
##미사일
##였지
기사로
살아서
좃국
##없냐
문제야
만들지
##전이
떨어질
숫자
##아파트
하다하다
최초
심판을
많았
상품
진술
##옵니다
단체로
정수기
지킬
지자체
욕할
채용
쓰레기들이
총살
##시험
##통을
##전부터
사람들의
##세는
하는가
김현
반역
수용
인한
조씨
고민정
것임
##해질
세계가
최대한
나팔
실체
준다
미국을
##자라
##리로
##대갈
##하는걸
어려움
자빠졌
말아먹고
양성
정권바뀌
급여
치킨
##둥이
##여러분
##와도
발견
##조금
##뒤에
그러고도
모임
카메라
강력하게
연장
엄마가
따라서
순진
없으면서
법적으로
파는
당신을
더듬어
무책임
##하기는
글로벌
더럽다
짜증난다
##으려면
황교안은
같으면
남들
경제도
하겠냐
##간다고
##천원
있는것
##봐서
댓글은
뜻을
##랑이
##선생
받는다
장모
죄인이
##지냐
##궁창
사전투표
분들은
중국도
##투쟁
민주당의
##인민
지나가
날라
서울시
일하고
있긴
처먹고
연관
영장
믿음
황대표
하시는
걸리
자체를
찍고
의혹이
##소리를
한유총
마당에
하는거야
자슥
불공
주머니
##퓰리즘
##하루
맞아요
여유
##만명이
썩어빠진
##려구
##인지도
만들면
피곤
정준
하신
##이름
도배
야동
##사람을
세금만
바뀐
##프레임
자금
타다
##공장
##집에서
##구는
##한것도
##자라고
중재
##미래
지랄을
분석
##수작
수요
##많다
이번에는
하늘이
선진
##과의
이때
한국도
책임은
거임
맞냐
##카드
드립
언론의
채널
##위병
이렇
##키들
##부터가
이용하는
##거니
##셨네
다른데
목숨걸고
가슴이
통신
방위비
부정부
현실이
개혁을
개인이
참고로
내편
##거리가
##개는
의한
저런거
듣기
점령
한숨
##되네
##배상
촛불집회
안에
잘해라
대대
웃겨
하던가
##두면
하루에
있기
##수에
##국인
##유지
걷어
억울한
매도
개정
회사가
##드냐
##의혹
탈을
##만든
모독
입다
##세에
##사냐
물러나
화장실
신상공개
뭉가
넣어
힘들고
못가
유통
똥을
편향
꿈꾸
##거운
##했다가
소환
##력도
입원
##부정
때려잡
다닐
##했겠지
있죠
##규모
뭐하고
주위
가세요
지정
아파
관광객
싶네요
또라
스마트폰
안찍
##되길
인공
선동에
생각해봐라
##살다
야비
개도
화웨이
정규직
지금처럼
민주화운동
맘충
와중에
정책이
오세훈
사재
국민혈
어디갔
평화를
평양
더불어공산당
35
까발
##었구나
##없애
징글징글
거고
넘들이
다녔
이쁘
죽게
##분을
##인양
토착왜구들
대법원
많습니다
싶네
요금
일만
보이콧
##버리는
국회의원들
안중에도
##방식
것이지
##냅시다
가치가
즉시
중국발
##부도
준다고
문재앙의
등록
명확
없던
이번기
##복지
##로써
공산당이
알바들
쳐넣
스펙
정의는
피해가
다니고
줄줄이
##자빠
어려울
배가
##내기
그날
인격
주제
##치다
##사들
소재
##안하면
국정원
곳에
열어
지은
곱게
나갔
##올려
##순이
국론
축구
너를
은퇴
초등학생
마시
아픔
진동
사고를
다르다
길을
##거늘
##예산
삼가
정의롭
물어뜯
##포기
민주당을
대리
시기에
파기
것에
##쓰면
##고만
재인아
달러
만나서
##니가
까불
한자리
대부분이
못하니
잠시
싶은데
이완용
개돼지들아
아시
##명도
바꿔라
몇개
누구냐
국민세금으로
하려면
##방해
사람이다
떠나라
김무
##체크
고쳐
합격
헌금
구속수사
잘해서
##군데
##저분
##이란걸
오해
##구녕
##릅니다
31번
다물
백성
시킬
##로부터
##60
##시키자
##매국노
적와대
전쟁을
정치판
박근혜때
봤는데
사생활
하나는
기념
##아야지
##종일
같고
물러나라
회담
##빠는
저런걸
임종석
##보인다
##스를
종로
좋을
##색이
아작
인성이
##꺼면
수수
##가격
시계
계엄
찍소리도
안걸
##하던가
사과하고
새끼들은
공수처가
등에
몰락
광우병
너희는
드는
위하는
사퇴해라
##까진
##대통령이
국토
중국산
수준의
개성공
싶지
싫고
##화는
##달러
김성태
카페
부끄러움
가끔
계신
수두
사회에서
##자격
정신못차
부채
이러고
내보내
##고싶은
##ou
좌빨들이
##할머니
##받아서
몰랐다
있겠냐
##일가
내년에
이런데도
나몰
도쿄
##ㅂㄷ
카톡
##넘들이
##제재
강제징
6개월
깜방
##놈도
은폐
괴물
망하고
옳고
##청구
##낭비
공중
##에대한
어디다
되서
잠깐
키우는
##버는
시골
폭락
인생을
시궁창
죄없는
##훼손
아들은
##쩝쩝
믿지
##연구
##남용
인민재판
150
아는게
##에나
##하는것이
##이잖아
##있는지
오죽하면
철회
광화문에
방법을
궤변
오지네
##규제
##자들에게
공화
소수
싸워
용기
추구
##al
만들려고
최순실이
일어난
어때
##이드
똘똘
##해야된다
그걸로
국민도
그릇
노란
틀니
소리는
달리
한마디도
고객
입에서
##한줄
사건이
무관
하나가
순실이
##지는데
##티비
조현
##진당
동아
후예
##되는게
##우선
모범
##형이
이간질
주체
기회를
##님도
##억이
##것입니다
연설
잡을
힘든데
내주
명품
사고가
##퓨터
##바람
이상하게
소유
폭발
##동이
나가는
##혁명
이제부터
역사의
허락
마귀
문준
바보로
##미는
상대방
##ar
##껀데
안되니
##되야
유공
##이들아
정신들
쓰레기같은
##받았
##순위
들통
아무말
##드니
##ct
생각함
눈감
있는거지
##천만원
잘못은
사건을
##이겠지
고통을
아이디
말든
##리스
안함
보수의
세습
나라와
180석
##죄를
##해보세요
내용이
무덤
##열면
##정에서
무시하는
넘겨
신종
심한
##나올
모르니
자한당과
교활한
##신교
생각해서
이나라를
사태가
새퀴
어릴
##보유
책임지고
그러는
##만하는
##아웃
정도껏
성별
##나봐
##남자
일찍
##11
##있어서
그들
숨기
##받아라
군대가
##사리
##실한
##가진
저항
직권
##년아
고마워
의도가
##르지
##하듯
합리적
개똥
보이냐
일본에게
본인들이
알아야지
촉새
안락
부정부패
##00원
국고
인건비
올릴
댓글로
뒷통수
##모르는
빨고
##절히
선언
질본
그렇다면
##속도로
뭔소리
호주
대구시민
먹으면
해야할
알면
죽는다
생명을
##끼야
망치는
결코
##전을
잡으면
##안된다
개거품
##조는
합니까
눈물이
퇴직
끝판
맞는거
징계
추모
##사나
##보면서
양산
오리
쳐맞
안타깝네요
##것지
##권분
애국자
국군
##해서는
알수
##일이다
했지만
나중
##자한당
누구도
공매
된거
##더군요
필리핀
그려
말과
분양
일에
표현의
최강
조국도
##안한
##라는데
##가니
##중인데
##이었다
##봤냐
최선을
좋겠네
공범
벌을
법조
##번호
지롤
##아래
##이용
##국방
연평
수두룩
담당
뭐래
비해
##부족
와이프
눈을
자는
마니
천국
사랑하는
세우
##탄압
모자란
떨거지
모인
하시고
여름
잘사는
지지한다
사람들에게
##애가
되게
안심
출연
한계
바른말
해방
북한도
##미로
바쁜
잠재
차리
##이군
안봐도
토나온다
집값이
##될듯
득실
우기
##있는거
인간도
##것냐
박쥐
나와도
##민당
좋냐
워낙
어려워
뭘까
나경원은
시각
지켜야
개한
있는건
노동자
노벨
봅시다
이것은
##세력이
같지
교묘
여긴
희대의
##스러워
높아
들을
##그렇게
##덕에
게이
생존
##장군
허위사실
추하다
성경
세계에서
이와중에
직무
##어야한다
편히
할텐데
##어로
##성으로
##새끼들이
책임이
과거에
꺼지
##있을
OOO이
장애인
약국
따뜻
똥싸
맞추
##문을
소리하네
안그래도
포퓰리즘
같아서
못잡
사람으로
두려워
22
##어버리고
##입학
길이
되도
조구
ㅂㄷ
강아지
지키고
뻔뻔하게
대기
##좋다
##죄가
이름을
정준영
기여
노출
불행
##불매
##투리
얼마전
서울시장
##감이다
##해보지
그치
경제적
계좌
안희
별거
일본가서
사태를
불구하고
김원봉
이런일이
선물
악랄
독재정권
임신
세상에서
따져
막상
안뽑
##안해
##입장
따지면
석탄
##했구나
이름으로
가까이
웃겠다
##차례
없애야
사법개혁
버려
##지금
아닌것
개성공단
해주고
##개돼지
학생들이
손에
없잖아
자유가
##사의
쓰레기가
##으시
어디가
3억
##만개
##생긴
##진보
보낼
자라
혐한
##이면서
##내내
전수조사
싫어요
거지같은
안되냐
왜케
##공격
정치인들이
아휴
윤총
여자들은
욕도
시설
시나리오
##말종
숨기고
##스라
실컷
하던지
버린
줄서
아오
오마이
작성
202
안타까
냄비
많을
서류
##감은
나의
짓은
당신들은
##시원
##스는
운전자
꼬라지가
지저분
##디오
그것을
깨진
어쩌면
삼성은
언행
프로그램
생각하냐
성역
네일베
생각하니
붕괴
##는걸
##치냐
했음
정신차리고
죽을때까지
노망
에혀
개미
##까고
결과를
##들끼리
역사가
탄생
##부에
우리나라의
부류
크다
##찬다
안쓰고
죽었다
##배로
이번에도
책임질
많으니
기부금
난민
입법
납득
우울
남자들이
개누리
##졌다고
보여주기
평화가
되는게
##들지
##하던지
수능
세상은
전직
##권은
##실이
북핵
수는
토왜
##희롱
##나라로
##등급
민주당도
알면서도
안됐
공통
아침부터
법도
일주일
못하네
##것임
생기면
이들이
##5년
지키는
철거
##하더만
##단계
##국민들
걸릴
저렴
군대도
고개
노후
법과
부도
온다
대책을
에게
하려는
궁금하네
한대
대마
웃을
##세여
##쪽에
##새끼야
어벙
##시도
뭐라도
치사
놀라
당이
모르면서
##한거고
줄이고
##파이
##려니
접촉
##자마자
##파는
일어날
##트롤
인생이
##그라
##까지도
##퍼센트
박사모
증거를
모르게
서울에
수습
##진영
입맛에
내수
않지만
했을까
기사화
증언
할매
##아내
생길
##도없는
택시기사
영원한
이번기회에
##다니고
뻔뻔함
빨개
세종
비정규직
##이오
내용을
##일때
##처분
제발좀
##나오네
가리
고정
##주제에
##식의
얘기를
니도
한방에
단독
##려다
왜놈
잘먹고
미래는
개나소나
끝내
문자
비율
##편이
재앙이다
##업자득
제기
##길이
##주는게
생각만
돌아간다
인원
제로
한전
##소서
##할때는
없게
##재가
명절
공무원이
있다는게
##배가
##팔아
등장
##한사람
사모펀드
듣지
불통
작품
했더니
##협회
##어버린
허구헌
나이가
것과
54
원망
이인
중고
팍팍
지지하고
폐업
##공부
##줬으면
언론에서
##들만의
초등학교
공영
겨울
##한듯
실행
짜장
컴퓨터
평소에
팩트는
떨고
##집은
친박
##하기전에
감추
##테니까
##렸으면
존경합니다
##실패
##줍시다
써서
##권분립
##가는거
맞을
##묻은
##는지도
저질러
골프
숙청
##야당
##도한
##드립
##가는게
선생님
시켜서
타격
##와는
가는데
정황
목을
##반하
이상황
어쩌냐
벗어
우와
##그렇
무너뜨
종특
털어서
##돈을
##본데
##집어
신중
전달
##선에서
저러고
생각나네
받아야지
핵을
##버릴
할지
감수
전환
##한국당
사표
##겟네
문재인이가
폭로
사회악
선거에서
조사를
대부분의
감염자
듣보
생겼다
실업자
홍위병
##행사
##그럼
적화통일
자업자득
떨어져
드럽게
유흥
##치에
사주
##증상
##양아치
이것들아
한통
일산
##급한
마스크는
나옴
대깨문들아
고3
언플
하더라도
할아버지
자식을
3대
귀신
팔아서
##상승
솔까
##넘은
사람한테
민심을
버리
싸지
더더욱
경남
주둔
밑에서
우익
유행
##시리
뭘로
챙피
디지
개인적으로
떠드는
설레
언제고
보내야
블랙리스트
##났다고
앉혀
자들
간섭
떡검
##만하다
##집행
##하고있다
최종
##HO
선동하는
시민들
부러
지어
귀걸이
은근
많지
의학
##었을까
개신교
노인들
엉뚱한
한국인들
수준으로
영구
든든
북돼지
콩밥
##한건데
##데타
왜이렇게
천막
서민들은
의견을
##할땐
출동
jtbc
뒤질
##집안
##기레기
국회에
했어야지
##요금
수준을
사건은
깨달
##가로
지나면
등을
주문
니미
좌파정권
공적
박통
배부
집합
문재인정권
재앙이는
때까지
지금껏
권력이
##환경
이렇게까지
미워
여자를
그당시
서해
강용
맘카페
오줌
조로남불
가슴에
사회를
기타
넣고
하라는
하는거다
건너
##관을
당신같은
대구시장
##드나
놈들아
아무튼
다하고
##치는데
저것들은
##이만
##것인가
마다
##난리
##히면
##훈련
##원으로
성희롱
실검
##at
ㅂㄷㅂㄷ
##았지
정부도
있다니
쓰냐
##없게
되어서
실명
##주라
##구를
##혐의
태어난
36
말하는거
선량한
오를
##렸다고
취직
##장사
말이되냐
평범한
안했
##안하는
하나씩
되야
최후
##게요
MBC
비리를
사탄
압도
##분간
정도가
##누가
입은
사라질
숨겨
##00만원
##안무
##인해
고의
싫지만
없으니까
몇달
측근
혜택을
쿠팡
적반하
##들이냐
##하시네
이는
조선일보는
저러니
마스크가
느낌이
기계
말하지
##기때문에
강제징용
뜬금
##해지고
##연대
##답시고
목적이
##ㄹㄱ
고급
신재
##분별
더러워
조공
##성향
가격이
26
메갈
확대
##7년
민식이법
##임이
면허
##짱깨
허구헌날
ㄷㅅ
23
신속
##주나
##기전
중국인이
##병이
애들도
##읍니다
교육을
똥인지
천벌을
##해줘야
문준용
여적
기간
접근
안좋은
##판을
2억
하이
동시에
말종
##촉새
여자도
지겨
형사
짜증나
몇몇
역쉬
웃는다
##맞아
돈받고
##시스템
##he
직원들
쥐어
다행이다
여론이
색깔
강연
하나라도
##변호사
보이네
##저런
##장애
아까운
처형
편의점
음성
모르지만
언젠가
실현
##요일
몇일
재정
들어온
##있습니다
새기
##또한
멸망
않아요
척결
한민족
##12
묻고
쟤네
##대면
##랄까봐
정신차리
좃선일보
개탄
자식은
##들갑
정권에서
걱정이다
믿음이
되니까
##로당
##럽고
고사
##구조
살수
쓰래기
하자고
역사상
##낸다
부엉
##믿고
치졸
##같지도
##시대에
새삼
챙기는
##된다는
안민
##조심
개표
##걸린
국회의
힘없는
##보로
##카오
##리어
##눈치
##해야죠
여러가지
이네
##TBC
나를
##할수가
화이트
문재앙을
총장님
지지를
민좃당
유재
추한
##할수도
소년
쪼개
관여
멋대로
굽신
매크로
##히지
돌아오
1번
하나하나
거꾸로
때리고
봐야지
##료를
논리가
##로도
다르게
잘한다고
주가
살아온
유튜버
역사는
##노예
##보게
미국으로
국격
싶냐
##이라는데
개고생
변화
전락
##고가
##om
비아
통해서
##일당
골로
##짓이
##혜택
간호사
입증
서서히
막장
틀어
##잖은
가난한
##나갈
##나보다
##소릴
개소리를
경우가
##전환
단단
백번
선조
국민에
이해를
감소
제압
##안다
##폐기
정당한
아버지가
느꼈
살림
##드로
말한마디
되길
하루종일
너만
오픈
회장
닭그네
파이팅
펑펑
유엔
##질하는
안나온다
잘만
1차
##해가
어렵게
기울
뭔지도
강의
##매한
행동은
손절
##종자
세월호는
드러운
어쩐
이랬
공개해라
팩트를
청탁
편법
생각하나
감독
노는
분야
올려서
사람인데
##종북
말해라
##못하게
##피셜
##하지는
2번
##공작
세무
손님
##깨문
정치꾼
어이없다
소위
##하니깐
##생산
후안무
##라나
##통제
##대출
의지
조사해
회의
국제사회
좌좀들
5000
최선
휘두
##차이
##되도
경제폭망
관련된
노조가
52시간
쓰레기들아
##할수있는
이들은
##받지
내려와
##값이
100년
소름끼
경유
이스라
잘돌아
끝판왕
넘어서
명백한
WHO
##사오
조국장관
개혁이
바꿀
쇼를
한국경제
비유
올리지
자기는
자기편
##모르고
실화
홧팅
사회의
나쁜놈
##꾸라지
##안하냐
건보
고졸
호텔
##맞는
버리는
##주네
차명진
##하십니다
##표가
나와야
##가리고
신의
참가
문제지만
모가지
우리에게
전투
그런말
하필
선전선동
저놈
##식은
검찰수사
이스라엘
태영
##도에
##안에서
##교체
김영삼
버릇
##일만
##당해서
텐데
##이제
소독
하나님이
속이고
똥만
애는
하겠다고
2중대
영입
일본이랑
오르고
적게
생각없이
그런데도
자영업자들
##실을
그놈
훼손
영감
##공직
##댄다
##힘들
검사가
뽑아서
짱께
##새퀴
##소대가리
훠훠훠
신호
자산
호도
말도안되는
##하겠지만
시선
##할거면
애도
판에
모를까
##근무
기사도
댓글달
늦게
김재
다주택
있던데
저주
국산화
한것
##리지말고
당연하지
##갈이
쓰레기는
##더라구요
정확하게
##준거
##시키지
비열한
그돈으로
엄청나게
온국민이
주요
배워
##배우
##취소
##됐네
반성하고
60대
몽둥
##는거랑
##러니
##같은소리
##아베
줘도
부모는
예비
형평
##할걸
사대
않을까요
무지한
낯짝
태국
##80
##모를
정신차릴
한나라당
것인지
##나와서
이기주의
것들아
필수
##바꿔
공산주의자
##정말
##치매
##사용
호들갑
네이버는
편가르기
vs
장난하냐
모아서
무엇인지
보입니다
##들하고
맛이
##녀가
만든다
죽여야
살펴
민심이
박정희가
돌아가신
4년
꼬봉
외신
비참
##동생
사이트
닫고
중독
##돌이
국가는
다른건
확정
##대에서
몸에
정부야
머리는
주말
의료보험
가로
누구한테
외국에서
고등학생
옆에서
##줄도
활용
##나라에서
JTBC
마무리
쓰나
나몰라라
##넘게
정권바뀌면
했다면
##개로
##더라고
##값을
새끼들아
하는거냐
모순
유도
이슬람
종자들
##일까요
##나가는
##회의
##나라에
##했어야
작가
차리고
##ㅎㅎㅎ
거리두
힘으로
가지가지한다
##나오는
검찰개혁을
아기
##고발
##인상
##심한
또다시
압수
입만열면
ㄷㄷㄷ
싸울
##였다고
자식들이
기자는
따른
##라면서
##안한다
경계
수소
선관위
강원도
##도와
살인자
2000
신이
북한군
만들어놓고
현실이다
##다닌
여기도
꼬박
유독
##인에게
쓴다
정시
지럴
치가
##르르
깔끔
북미
숨쉬
안철
조원
##집이
올리면
이제서야
안통
##바랍니다
##이유가
귀찮
##듯한
##문제가
배불
빌붙
청렴
골라
##끼가
##씨도
비싸게
달아
성격
##없어요
##입국금지
구별
##덩이
니네들
죄지
##인데요
하시길
위하여
장하
##키트
계시
배민
##un
##누구
그리도
보나
이태
어딘
모르네
대깨문들이
배워라
스포
싸고
시간을
집단이
##라는걸
느그들
불의
시원하게
전체가
##셨나
반성해라
앞서
의존
하겠다는
후보자
소리만
문제냐
구체
내면
따위
미련
신뢰가
개는
떨어지고
못하나
이상이
제작
하겠네
##레오
의사가
##라우
생각해라
설쳐
성향
##했을때
##였냐
들어와서
기본적인
경제에
손바닥으로
뒷북
부작
해줘야
도둑질
3일
개수작
패스
##달라는
글구
사실이라면
사립
##사장
##블릿
그래요
나가라
경향
못사는
임마
이런말
적폐로
넘은
신발
틀림
##대비
10만원
이인영
안된다는
살리
##받으면
##듣는
지겹
##출산
##상의
##NS
##저래
학교에서
금수저
수학
좋겠어요
기업은
속아
##실장
대학교
역풍
##어지
##릴수
갑시다
문대통령님
안하지
우째
인간말종
중산
##죽이고
대한항공
##시키들
생각으로
수사권
##어를
기준이
현명
회계
이중성
저소득
##그랬
##호식
될것이다
문쩝쩝
판을
##뭐냐
똥줄
않는데
##월에
건가요
보는데
하실
##중의
선동하고
사이다
해봐야
##조기
충청
그래놓고
사실은
정도의
잡은
본인도
모델
##된게
축소
사안
일으킨
정보를
증오
남았
##잡는
색출
협의
##억원
없다면
무개념
안막
완성
치밀
부럽
선심
지오
검찰과
거짓으로
인력
알고나
떠들고
에어
책임지
기업을
대상이
다른사람
했어야
형제
강조
밥은
튀어나
호소
만들었
골라서
##개표
##연합
인정하는
유권
##실험
할수있는
굉장
하수인
고로
뽑는
##죽일
북한한테
##당해
소득주도성장
도박
천재
##도없고
##게임
##가에
##음을
스티
기사라고
저번
채워
##데기
하지도
백신
화력
##위조
국민들만
##해결
밝히고
글쎄
찐따
문죄인은
돼지로
믿는다
예방
##치않
##보네요
##질만
대구는
아랫
##이는데
##지켜
버텨
거시기
현혹
##호가
##패거리
100만
위법
쳐박
당할
양승
##오게
많으면
외노
##보가
##국적
##독립
논리로
명예훼손
개망신
오늘은
의심이
명박
##해달라고
빌어
조정
출입
수준이다
아베의
기억이
김건
##70
아이들을
보임
##의원이
자리에서
개웃
짤라
선거철
##우니
여론몰이
##뿐만
반일선동
하는건지
부를
피해는
싸우고
##리는건
아베한테
2천
끝장
임진
하나의
##무가
##실에
일자리가
물리
이상하다
안일
고마해라
##당께
##몰라
교수가
##건만
청와대와
인권을
##했잖아
개를
괜찮은
잘하면
##mf
##인지는
##명으로
가는게
다수
말투
##심에
##나라를
보수를
교활이
집이
벤츠
할게
##주사파
##겠고
아마추어
못들어
##별로
##강산
##채로
어떠한
##나오면
배고
##질이나
도시락
##아닌가요
그립
노트
##잖냐
어설
가족을
다리
인신
새끼는
아가
##것에
##같은거
##스럽네
사퇴하고
문통은
##물은
분노가
창출
##소수
##써서
이러한
했어
혐의
쓸모
에라
##진게
제조업
##번방
안하나
열일
집착
남겨
내내
##다르
머냐
##화로
피가
도움을
오지랖
국뽕
지들도
##될까
##되어서
뻔한
아니겠지
대량
좆선
차례
##다닐
##당할
만드네
완장
광화문에서
꺼내
##마시고
##무새
##하시면
받아들
밖에서
전재산
횡령
##주에
##면제
북한이랑
##새끼는
동원해서
버는
왜들
정신병자들
개소리야
자중
설레발
##려야한다
답답한
##했어야지
70년
죽어서
##당에서
하태
단순히
열등감
기능
##구장
어렵다
##회장
##하다면
대표가
못사
삥뜯
안에서
조국아
자주국방
의원들
안하는데
유촉새
##왜란
##는거는
##방법
##거네
##주는데
조선일보가
se
##탱이
미군철수
##💙💙💙💙
눈에는
해고
##내요
##염병
뉴스를
살려고
##만봐도
##신천지
자한당의
외교를
것인데
보일
사람이냐
상관없이
윤총장님
있겠지만
추잡한
끼고
한개
있을때
사라져라
##속이
귀족노조
심하게
유시민은
유착
시민들이
대책이
아닐까요
당을
없어지
마음으로
올인
안가고
짓밟
카카오
프리
##서로
##여성
##잔치
여론을
보유세
끝났다
대폭
전쟁나면
수수료
나한테
바뀔
##아파
##새끼들은
간첩이
SNS
##말아
##말든
빨갱이는
공정하게
예측
##차에
인구가
저들이
징용
현직
##었어요
아이돌
바이러스가
유승준
나팔수
빌려
이전에
쫓아
00
바꿔야
##오니
##심은
우리집
주둥이로
##시적
##기냐
독재를
##인정
당해
욕만
있구만
##가야지
그다음
손학
개돼지가
팩트체크
많다고
##받는다
##지않아
놀아나는
##인거야
개박살
##생각을
가수
우병
그런다고
않았나
소중한
그들을
자신들이
발상
엄한
##인증
한푼
##기부
어이없네
##어린
##지들
이름이
우상
##치자
##아니야
부족한
가벼
강도
분위
여권
되는거지
정체가
##학년
##물로
구글
둘러
게이트
바가지
압승
##쪽은
##중요
걱정된다
주의
국민성
밀어붙
나발이고
받으
빡대가리
##방에서
##성화
몰카
못하는데
은혜
있니
퍼주기
##공동
보이고
##ho
##하기를
의원님
안간
증말
##정상
##공항
한미동맹
법에
않네
차려
국익을
수신
냉정
다른게
하루하루
##냅니다
미세먼지가
##많아
칼을
방송에서
군림
여군
짝이
##빨갱
댓글다는
##하냐고
다니면서
##자랑
##설치
짱깨들
##형을
강남구
##자꾸
어지간히
바미
##거짓
삼청
지킨
##그로
문제로
바꾸고
김문
##다며
안팔
욕하면
##부담
##3년
있었나
약한
해준
될거
없었으면
##많네
##NA
앞뒤가
우동
외출
##나이
필요합니다
##셨으면
##프로가
되잖아
연대
##애비
##버리면
잃은
##해지는
##일으
뇌피셜
보내는
앞으로는
겸손
초반
미래통합당
원조
##소리가
45
대구에
없어질
공권력
로또
지휘
자발적으로
말입니다
떨어뜨
주적
학대
황제
##책을
문화재
소상공인
소각
예를
백날
죄는
찍을
트위
일본산
이제라도
종전
##도시
응징
나가면
##되는지
그런게
##해진다
대통령이란
호구로
적극적으로
기분이
법인
외모
제3
외부
종자
다신
두고보자
브랜드
안그러
##이던
##심으로
##겄다
상당히
씌우
찌그러져
차가
바보가
살다살다
먹고사는
너네는
그간
이준
인종차별
반발
반영
##사과
맹목
이왕
##쩌고
##해야하는
조사하고
모자랄
김무성
부럽다
살다가
봤다
왠지
정상이
고등학교
연방
##아비
##운운
시장경제
무력
정으니
##자본
붙여
실시
##증이
##배를
악용
있는거다
##임명
하고싶은
할것이다
머리를
간절히
침해
조국사태
좌빨들의
##고있는
##장악
들어야
##re
저것도
확신
##나쁜
손으로
##입으로
만들자
환경단체
있었으면
현명한
소식
##비어
##하더라도
시바
##말대로
내놓고
삼권분립
##국가가
미화
속지
##질하고
##더러
수행
아니에요
낙하
##감도
막는
박수를
챙기고
취임
검사를
조성
##물어
다루
일가
##라는거
##리니까
북한만
신천지에
둘째
말좀
남에게
자손
문희
있을까요
##한다는게
나머지는
노무현이
골수
##갔는데
눌러
가시
이쁜
집사
알고있
쉽지
혈안이
##올리고
##평가
거짓과
다르지
##문재앙
구제
봐주
일등
##였구나
중요한게
고기
잡아야
##내에
부끄럽지
컨트롤
남자들은
##바다
한국사람
미국한테
내뱉
##이에요
##따구로
긍정
말안
보좌
안죽
한가지
##그대로
제명
흐름
##억씩
보며
소문
잠잠
처벌해야
되나요
##전한
##돌려
해도해도
##선에
교통사고
대상으로
##들임
##좀비
미쳤다
한미일
엉터리
정책은
뿐만
주위에
##명단
##👏👏
##이긴
아니랄까봐
검은
장담
할말은
##되기
##져야지
발언을
언젠가는
싫다고
##수지
##없습니다
부모도
가도
저들은
OOO들이
기준으로
놈을
지고
##았던
##는건가요
망친
배치
형편
##제목
사이비종교
감방에
손해배상
tv
##거리며
될수
따까리
자들은
##구야
많은지
##들에게는
이모
일본차
##나라냐
쓰레기야
##스럽습니다
애쓰
##교통
철저한
이인간
허경영
##돼서
진보가
ㅅㅋ
##당도
##대니
##하지마세요
망한
백퍼
전통
찾아서
표정
자한당을
수사는
반면
풍년
모른척
답없다
어거지
##무지
##량을
일본보다
영향을
속도
##미친
##되니까
사케
세균
추측
##보이는
지능이
끼들
바꾼
##해줘
##돈은
검찰개혁이
임명한
연예인들
죽창들고
자한
들어가면
의원직
놈아
##도아니고
일본놈들
근대
##런지
무소불
댓가를
생계
이고
내로남불의
저지르고
하나님의
##해줬
술집
현기
속에
스토
##전자
##국민들이
세계적으로
투명하게
##의원님
느끼는
##때문이다
##위원회
본질을
잘하세요
정치인들은
검새
한편
##데요
촛불을
정신차리지
##문제는
교회가
##올림픽
민주당에서
28
다운
못하겠
호의
##차로
불쌍타
맞지만
##기록
##급이
전두환이
범죄자가
불리하면
날조
##나라는
있으면서
한심하고
감찰
##유예
정숙
나왔는데
파렴치
사재기
공영방송
##같지
##읍시다
단기
부적
악화
##세연
##릴려고
단단히
털고
했습니다
고위공직
깔아
눈먼
시국
없죠
들어라
##했니
##케이
키운
OOO야
구상
많냐
통수
##이야기
돌리고
일이나
진료
관심을
핵무기
세력이
터질
향해
##딩이
홍준표가
작정
##이야말로
여가부
양승태
mbc
거절
낙선
##이라면서
거리는
기반
##대신
다니냐
그따위
##경쟁
##망정
##째로
거짓말로
퍼줄
##정부의
다시한번
삶이
여지
한국으로
##보며
##받게
손학규
거주
몇천
얘기가
##바란다
깨닫
##인다고
모르는데
덕에
##쪽에서
##국가로
##도못
##색을
##것이지
##았어
아름다운
갤럭
##거죠
뽑아야
##셔야죠
지켜보고
얘기는
##이하
국민만
가르치
안고
즈그
##면허
골빈
##하시오
달창들은
지오영
길게
##줄께
##♥♥
짓거리를
장례
저것들이
굶어죽
사학
##저나
공수처는
쓸어버
이나라에
지성
##가보네
석열
싸다
올려라
푸하하
여기까지
자식들은
구성
단합
##들인데
##세다
안좋아
자고
징그
체크
미쳤네
3번
400
우리민족
##야지요
한명도
사항
##네가
##분도
겪어
교과
따르
또다른
면제
수석대변인
그밥
새누리당
원흉
언론과
해주는
##랑께
##꺼냐
싸이코
외치고
댓글도
너부터
아나운
##사에서
민주주의가
##실에서
그런건
살아가는
##랑은
##나왔
버려라
줄여
토착빨갱이
천만
총알
검찰개혁은
곳에서
꾸준
된다면
본질
싸우는
##자너
##환이
비방
잘한거
##해져
아니란
##만으로도
배울
##보를
상징
##태섭
많구나
내리고
##간을
##트로
##금으로
##함에
##일수도
##크랩
##회찬
##억을
행동으로
내지
적으로
1인당
으이구
지나가던
무사
네이버에
##부랭
##들이라
촛불로
트위터
님이
ㅇㅈㄹ
##스도
의심스럽다
라이
임진왜란
땅에
실시간
##새기들
이석
인스타
##하기가
역할을
안철수가
##였다면
##하는건데
빨갱이들은
없는지
펀드
##없다는
생각보다
거라고
속은
금강산
##ㄱㄱ
아갈
기다리고
퇴근
##포함
쌍욕
아따
##하곤
##이라고는
소리냐
아이러니
병원에
남로당
육아
찌질이
어린이집
이나라의
사지
참모
언론들
설치는
체제
##뜨고
초기에
##인격
##역시
안락사
굉장히
개구리
오버
##나네요
##린지
##걸리
나라다운
##니까요
##국가에서
교육부
터트
방법은
배우고
신라
우리한테
언제는
수밖에
의원이
##보상
##으라는
엄격
철도
##린게
잊지
다르냐
코로나는
##자들도
불법을
않도록
저질렀
먹여살
1명
멋지
##틀러
신천지를
사과는
중요하지
건강보험
할줄아
스쿨
##상식
쪼다
듣보잡
거론
꼴을
백두
추악
하더만
복귀
##았으니
문제인이
##보드
국민한테
국민여러분
기가찬다
굶어
조국가족
판단을
넘기
터지
##들어가
가져다
##먹어
니들끼리
경험해보지
##이냐고
##정도는
개한민국
멋지다
정계
현충
##할까요
##질않
떨어진다
위해서는
민족의
씨를
울고
##단체가
합리적인
까라
닭대가리
쪽발
사퇴하라
달창들아
멈추
##en
바둑
말고는
놈의
##하는것은
길로
자폭
생각해도
정의당은
공수처법
자격도
비공
##산물
믿습니다
피를
##정도면
삼청교육
우짜
##사한
떨어졌
밝혀야
놔두
동료
용돈
##진거
수사해라
##세먼지
판결을
##쓰레기들
금태섭
맞은
했겠지
##1위
시민이
검찰조사
너무하네
총선은
##목숨
깨끗한척
일으켜
내라
안해서
절라
##도없이
거죠
퇴진
##말이다
5G
##놨네
##자리에
미안하다
불교
숨어서
##등을
언론을
어쨌든
##ctv
정당이
보이나
##두로
##씩이나
뽑아준
부르짖
고스톱
상종
식구
알겠지
응답
##😂😂
억울하게
조치를
쿠데타
##건강
##키는
하는것도
심각하다
김여
진보는
가볍
바랄
심히
중국이나
##의사
##아줌마
##파괴
여성이
##좋게
##주인
##꼬박
가관이다
살어
##유치
##소는
개독교
##꺼리
경험하지
일할
도지사
잔뜩
기껏
복수
큰일이다
버릴
쓰네
꼬투리
이기사
##했어도
##혀라
신재민
##오냐
##판단
하고있
범죄자를
사정
쌓아
한결
지금부터
들어도
떨어지면
가능성
옮겨
언론도
정책으로
잘못하면
조선이
깨시민
경비
##하단
일본하고
29
사회생활
내년총선
소나
유발
친구가
##중독
생각했는데
감싸고
낙하산
##의미
예약
##st
##았음
조금씩
찍는
허접
흥분
##이라곤
뒤로는
발끈
줄서서
허수
##가루
전라도가
지지율은
너네들
ㅆㄹㄱ
돌리
##나는데
##권도
##클럽
이용한
들어와
이놈은
뒤져라
저사람
올라가
사이코패스
해외에서
되겠다
모금
부르는
툭하면
##시켜야한다
교수님
삶은소대가리
떠넘
##들이여
전세계에
일식
##위의
저랬
##말만
각성
남한테
##치는거
믿냐
##심판
곳은
니들의
전국에
##택시
메르스때
부엉이
당해도
부처
집으로
##다나
##재단
태영호
배후
##중이다
막아라
퇴임
검찰에서
어리석
짝짝
인권이
수령님
안속
##으냐
중산층
죽었는데
##화된
##발표
말이나
##죄인
부끄럽지도
공사
자리를
조두
공인
난리를
##치면서
##ㅇㅇ
100프로
유일하게
경기가
힘드
##발광
도둑놈
##까는
않았는데
##아닙
##할까봐
국방부
##출마
##하는건지
알겠네
반대를
##됐다고
아무래도
5억
국립
알지도
지민
알겠냐
##되겠네
남발
있는거야
자리가
##치로
##많고
##대냐
1조
이국
표본
받아들이
##장의
##기까지
머릿
첨부터
##대네
##넘들은
안되네
독점
싶습니다
알겠는데
미사일을
공평하게
사유재산
증여
죄송합니다
가냐
인간이냐
##재난
기밀
이주
니네는
당당히
압력
청화
혈세로
데이터
예정
##신분
대통령이라고
지원을
이세
줄이
나왔다
##연한
##깝다
축제
경제성장
오류
일해서
죽었
소름돋
기관총
많다는
욕나온다
주는게
스포츠
분단
임시
좋아하네
종교가
하태경
먹어라
않지
그런지
배제
언어
있는거냐
될텐데
빨대
##법도
가는구나
말라는
사냥
채우
##먹기
##움을
정의와
##아빠
좋은거
자원
이상은
혼자서
다까
##투사
이거지
김씨
해쳐먹
##이들은
##시나요
페미니즘
할일이
얼굴을
느낀다
그분
세운
속으로
경제보복
알고도
자율
##목으로
들어오는
어이없는
무법
##수없는
나라망신
##겠다는데
슬프다
나고
의전원
구한
깜짝
##바이
헌신
창궐
이런일
생각없는
선거운동
불러서
조종
전시
출생
##난다고
##아이가
##았고
사람들만
재난지원금
발로
##le
자한당에
말로는
입다물고
무식하고
보라
안한다고
##일지
준표
황당
인권은
원자력
적어
##보낸
수사가
잠수
찔러
그나저나
진압
어이구
규정
##것으로
기업들이
자유한국당은
이빨
##에다가
##이라는걸
뭡니까
##여당
10대
보단
수정
와우
나오나
##oo
기본적으로
통치
단어를
2020년
27
##드리
안되서
대구에서
지긋지긋하다
노회찬
상실
현상
##그룹
##만큼은
그전에
뜻이
뻘짓
##저자
##직을
되겠냐
두들
방식
포기하고
군부
올렸
창피하다
빼박
야당은
##쪽이
##확인
추종하는
문제임
진정성
조국같은
지랄도
동포
쪽바
치면
타협
##계는
##케팅
구청
##난거
가르쳐
쓰세요
욕은
자멸
##시라
##정책을
주둥이만
조선은
탄핵을
##등에
##보지도
##쳐먹는
유리한
2월
될지
빙신
양도
저것
나오니
책임져야
차릴
##래미
방송에
군인들
내린
하잖아
##신청
##지않게
시키면
소설을
최우선
평생을
왕창
##타는
빼면
에구
에너
##말씀
저런것들이
안다고
##법에
직시
인간이다
억압
##사라
##국민을
##ㅉㅉㅉ
귀를
꼭두
당원
이야기를
한통속
거짓선동
수준하고는
문씨가
가둬
##기싫
거대
전역
조작이
소멸
얼만
##린데
기가차
##전으로
에이즈
된장인지
이들
동사무
확률
현대차
따르는
작년에
##사유
하고있네
##걸려
극치
납니다
늘려
당분간
##제대로
포기한
문정부는
##들인
안희정
지인
##하셨습니다
망상
쥐새끼
##위원장
지불
##ut
##용지
달인
이가
해보자
니나
디자인
심심
주먹
뭐만
없나요
##했더니
##면이
지껄이는
비롯한
##시게
##란히
쳐들어
##교사
이걸로
##쳤다
다양한
사상이
이냐
후퇴
##줄은
##고대
기다려라
보태
저따위
죄앙
패배
##하는거임
보여주고
맥주
저인간
지혜
댓글러
경찰에
외교는
##관계를
미쳤구나
곽상도
##일수
##선은
두개
쓰라고
용감
외교부
강용석
신앙
종료
생기는
안민석
보는게
시장이
아무렇
넘어갈
간다고
원인이
유명한
주디
바른미래
죽음을
싸이코패스
3월
3개월
중요한건
##은거냐
김상
##주는거
이틀
폭도
##세포
##미달
조사해야
종이
차를
##으로부터
이리도
뒤져
이정부는
##선택
사형시켜라
놈이다
##있던
##구역
누구보다
그랬냐
못보
의대
후진
##조장
교회는
진중권이
가중
##당초
##빨아
마음은
의혹을
눈가리고
암살
미친듯이
강성
킹크랩
우병우
김의
##대요
##무서
##하겠나
얼마든지
만들기
직권남용
3천
##현실
##따구
가스
뿌려
##해줘라
쪽바리들
싸구려
일정
##스쿨
기사만
공안검사
빠르게
예외
이에
한마리
##능력이
내돈
친척
안했다
영토
##주길
##부끄
##무사
##제발
미통당이
공매도
##대왕
시작해서
4차
##고집
##버리네
중국이랑
세비
얼굴도
신용
시키들
##했구만
생각해보
지상
##손손
관대
기를
욕심이
##가봐
##개소리
해줬
##부부
중요하다
뭐든지
##증거
맞서
##고를
##인트
잠재적
홍영
전쟁이
반중
거울
##홍어
녹취
소방관
천황
한기
해야합니다
xx
게시
막가
뻔하다
심리
##드는데
조국이가
구청장
버려야
##꼬리
정치적인
박근혜대통령
누구의
민변
않아도
##란게
##봤으면
착취
건강한
기원합니다
의석
스쿨존
왜그러
##등이
모르쇠
오고
##연이
해야함
광복
구독
파란
##것같은데
고립
못쓰
주접
##살고
##하시네요
꼴페미
허리
##지지율
비극
##수출
##체제
내용은
발사체
개만도
##있어요
##급으로
##지는건
감기
잘하는게
어디가서
있을텐데
지식인
정상이냐
나와라
같은거
괜찮고
욕하지
##을것이다
##생들
##팔고
##을까봐
일본군
꼴깝
##파가
점심
천안
추적
##총장이
이상해
만약에
효과가
무릎꿇
벌벌
상당
##인거다
##찾아
삭감
정신줄
일인데
줄도
직전
해주면
한달에
꼴갑
선출
않으니
태평
비판하는
져야
##직도
딱봐도
화를
후배
##할건
##덜이
##더기
사실이다
뻔뻔하고
비겁한
개헌
이후로
씁쓸
자를
##😡😡
어따
소리나
이러면서
끼어
##경기
잘못한거
낳고
몸이
지지자들이
2019년
저승
집도
뉴스가
안들면
이글
주어
황씨
가족들이
##모음
##명이나
입국을
고맙습니다
핑계로
1월
시부
희한
슬픈
##치며
##하구만
조국에
##다니면서
피의자
식량
##이었으면
쓸어
##구에
범죄가
불량
진핑
돌아갈
망해라
하죠
국내에서
애비가
만날
심하다
이새
##모독
##악질
계엄령
##세금으로
애들을
지극
촛불들고
건보료
북송
속국
문베
##상품
##함께
##현이
힘내라
소대가리가
몰표
않은가
연동
##토막
##한다는데
정의의
처벌이
##아닌데
아재
캐나다
##미수
국정운영
매매
으휴
전체를
공개하고
안전을
복잡
종합
선동해서
기만
노골
와라
##TV
##무기
알권
만들었다
내놔
문다
써도
걱정이
행복하게
##청문회
##곳으로
##쟁이들
##말아먹
##였습니다
정신적
민간인
좋네
쪽팔린다
잃고
국가보
모르겠고
맞죠
##겟냐
##하시죠
최고다
기래기
주5
##행이
##원의
선택을
찬양하는
작작해라
종족
##약한
화재
##테타
사랑합니다
개념이
족속들
달라지
백배
##같으니
##감으로
##게하고
##관계가
극좌
반공
친미
##작업
감옥에서
들었
삶의
ㄱㄱ
선포
섬나라
##무를
있는듯
죄값을
터지면
##셔도
꼭두각
법률
##와의
개념없는
그지같은
##악을
가족은
움직이는
전부터
지켜보
세무조사
가식
선거개입
쳐도
정권이다
굴러
##00만
어버
##위에서
##벌어
외제
하자는
달창들이
부끄러워
##경제가
어딨냐
맘이
휴전
##대통
거는
##차게
새해
##셨어요
보기엔
높다
망해도
탈세
시체팔이
##유럽
공시
살리는
순식
##자야
명박이
##봐야지
사실이면
대깨문이
될거다
망하면
애낳
있겠나
다를바
내릴
놈들이다
타도
모르겠네요
형님
##벗고
미루
쯔쯔
딱히
폭파
##해야하는데
다물고
동정
수사해서
무작
좋지만
상대가
유입
##족을
##잡아서
기회가
몽땅
외고
볼모로
핑크
피해자는
친일파가
집행유예
3000
뭐임
##금은
하는것이
##대사
##들어라
국무총리
정치인은
##조차도
우물
김정은의
뭔가요
혁명
##힘든
80년대
않아서
하청
해찬
##해보면
##길을
##퇴근
##킵시다
놀이터
빠지
##음에
범인
쓰는데
업적
##인디
##분야
못받고
수준에
개꿀
받으면서
신천
##는대
##이건
##짓고
버렸
죽어가
즐기
응원하고
말아야지
##한적
##모델
DNA
##어떻
박근혜를
안타깝지만
학력
안되는거
imf
굴욕
종북좌빨
우주
##주교
##메달
##동강
국가원
한번씩
1년에
##구장창
년이
뭐해
자유롭게
따지고
탐욕
##노인
한기총
원수
##서니
##손으로
설사
##들에겐
자세히
##을걸
##6년
적대
##해지면
##주면서
더욱더
일상생활
세탁
안하는게
없겠지
우기는
비아냥
느낄
##로가
##호구
청년들
여럿
김의겸
##왜곡
대단해
끝이다
비굴
재단
최신
포항
아니었
꿈도
##멋대로
하는걸
국가로
##하는건가
강경화
##안됨
##듭니다
고생이
노력을
끝은
진영논리
위대
##갑시다
남았다
이긴
총장이
타는
##타임
##차원에서
정신상태
쓸데없이
##이탈
##속까지
집은
##만나
##사님
총선이
말인데
##했네요
공부를
뇌에
열폭
자발적
대규모
자처
##니꽈
수사하라
죽기
##시장이
바래
반려
##던게
쓰레기를
있었고
깊이
봐서
치자
대고
싸돌아
어그로
페북
2030
줄어들
cctv
깊은
조져
시진핑이
오리발
했다가
싸질러
##둘이
처벌해라
##일뿐이다
직무유
뉴스는
길이다
##포로
계속해서
노친
##층은
##하고있는
고인
대깨문은
양심은
그가
후려
##지말라고
버젓
아빠가
부풀
##개들
##수입
##진다고
##영장
##라는건
역사적
증거도
##ing
거두
##직전
우리만
##감독
일본기업
방가
기웃
나치
보안
일좀
##원숭
##소로
넘들은
참담
##은건
부정하는
치료비
최악이다
타이밍
볼수
겁니까
사나
통째로
##함은
구석
나씨
말던
선정
분노를
예전부터
김종인
자전
국회가
까도
##통과
있는건지
정권과
태워
##기사는
필요없고
50년
누군데
부자들
자위대
65
##계속
생각할
자유한국당이
돈많은
싱가
##짓만
##지르고
##ll
##싶네
저런것들
모셔
질투
정신과
기사쓰
백종
나타나
현재의
##살아라
##ㄱㅋ
다수의
##강도
##정권을
가질
답글
있습니까
##못할
##리는구나
그만두
아이구
진단키트
앞두고
안녕
##있어라
##는거잖아
모자이크
양쪽
처넣
초토
##구도
아침에
떳떳하면
##UT
이정도로
안하무
급식
서양
##보냐
##경을
##민은
##색기
##후손
군대를
못알아
무효
예술
잘들
##값은
희망을
천박한
그외
머라
안써
에고
착용
##면서도
장관님
저들의
##팔아먹
안보는
이명박이
##들한테는
문정부가
이중인격
돌아서
##놓으면
약자
쿵쾅
##줄게
##지길
내밀
이외
파산
##지처
##단말
21세기
거들
세끼
##건이
아이들은
아베야
관계가
막았
벌고
수법
##인대
묻은
##있어야
##국민은
##새끼들아
밥맛
이양반
이런것
검찰도
##지않는다
무식하면
자유민주주의를
이끌어
2명
##집을
##버리자
##편향
해소
##아픈
사리사
하위
##종이
##키고
신뢰를
문슬람들
미필
쉬쉬
##리만
##생을
힘들다고
역겨워
계란
주구장창
##가기
##챙기
##됐는데
국가적
그렇지만
도전
망해야
위치
닥쳐라
발정
훗날
##불러
그럼에도
방송국
불로
장본
치워
월급은
거잖아
고래
써먹
국회의원은
맡겨
밖으로
##사는데
아베를
중동
조국처럼
글쓴
그야말로
##트를
있었네
##생각은
개솔
그깟
비공감
##차단
##약을
정당화
노태우
##났으면
##무식
문빠들은
이적
##국주의
##부장
##있어도
지랄들
하지마세요
위에서
##🐕🐕
코로나를
행복한
120
순수한
갤럭시
##최악
가동
경인
##대처
##견이
##일자리
##증명
##을때는
디스
몸통
주인이
총동원
##줄까
왔는데
지지자들은
공수처를
멍멍이
타이틀
필요도
국제적
도라이
될것
히틀러
##대접
이러다가
이명박그네
##폭동
##나가서
방관
약점
##자신
##하는거고
표창원
도와주는
##합의
##뜯어
짱개들
##사기꾼
전라디언
선배
##놓는
윤미향이
목적으로
##해체
##화에
부분이
분탕
살만
##비판
결국엔
주옥
촬영
##모아
##상한
지도자가
##월급
##늦게
꼬박꼬박
##지에서
이러니까
중간에
##만세
##있는게
보내서
아놔
##가세요
##대깨문
##더니만
사이에
나가고
매춘
문프
##오네
##빠지게
노예로
보냐
있는데도
개인정보
쓰는게
##만이라도
##유학
어떤지
한때
##이신
##형으로
이런글
전세계에서
받았다
우스
##이거나
건들
돈과
##진은
책임져라
보여준
망가뜨
뽑고
##키로
과잉
의협
있으나
해달라고
##때매
사망자가
##되는건
##찬성
싶어도
시대의
꼴도
##아녀
##트가
##좋겠다
이지랄
떳떳하게
농담
두달
똥물
먹지
안가는
##들까지
한국과
현실적으로
공무
맞춤
사살
엑스
혼밥
##씨를
감정적으로
김건모
##십쇼
가능하다
심재
주거
##수있게
조두순
출국
##내에서
내버려
봤냐
차리세요
코로나에
ㅇㅈ
##미를
##불쌍
조구기
몰수
빵에
해줘라
밀어부
##비율
##관은
조국이나
나이에
사진을
저정도면
쓰는거
##다하고
##뿐이
##져요
그런걸
2018
꼴랑
되기
##법안
##언이
니네들이
맞아야
차원에서
##티즌
조심해라
고속도로
실체를
잔치
파티
##거같은데
##저러
대표적인
정유라는
중대
국민분열
정권교체
수시로
연루
좌빠
명단공개
유기
위해서라도
안타깝습니다
놀랍다
사람이라면
살아갈
좌표찍고
똥칠
보조금
욕설
짧은
하길
##이틀
토착왜구당
불법으로
좋을듯
찾는
신천지와
버티고
가치를
삽질
예쁘
##활용
##지않냐
비난하는
나쁘다
표가
우리보다
공부좀
국익에
당하지
등돌
못하는게
시전
##료가
##오줌
##무죄
##볼까
종교의
똑같아
입으로만
덩어리
##사이트
##선다
이재명이
발병
##얼마나
10월
선의
##안돼
##사회주의
가봐라
오빠
붕어
한거지
##학과
##햇다
##멍청
원한다
##바지
##거리지
놔두고
수갑
쌍판
##왔던
고마운
불리한
##전문가
각하
##보라
정부다
우파가
오르면
때부터
시다
천주교
##찌라시
##마는
##전은
역사적으로
나가야
##되네요
##조로
생각난다
헛소리를
##놔서
그렇게도
깨끗하게
믿을수
대다수가
과반
눈과
핵폭탄
##침에
지켜라
안잡
어깨
이년
존나게
사람들한테
골목
구원
##유공
정신차리세요
그와
둔갑
받는게
##이해
갔는데
우릴
화나요
##건은
못배운
41
할려면
##대며
외쳐
잘하네
증상
##고시
유감
형량
지극히
뭘해도
##대회
제목만
시끄럽게
TK
오너
전정부
##은혜
윤리
천하의
짜고치는
깨어있는
고양이
니같은
만한
분은
##지경
##급여
##죽이
웃긴게
맞벌이
어머
할거면
##할건데
거짓말이
있을지
##교육을
##졌고
##인간들이
고려대
때마다
부모의
이준석
닭근혜
수사하고
기회주의자
비상식
검경
다하네
##토론
정상적으로
개혁은
재산을
불평
유신
##등록
이거는
못했다
부당
##먹으면
바글
위태
##브라
선한
##가튼
중국공산당
기사제목
교육감
혹시나
대항
멀어
태도
##자녀
비공개
뿌린
쇼핑
칼로
##데이
하는건데
집값은
##하지않고
지능순
민중
부메
작자가
##나옴
존재하는
할래
##리지마라
벌써부터
sk
민좆
##왔네
나라야
부패한
거짖
기재
너넨
한복
##박고
농락
##떼기
##생각이
답은
예능
유능
지금보다
윤석열은
MB
난독
헛발
##부탁
##CD
100억
무엇인가
김기
잡아라
요양
##서울
##금의
##봐주
괜찮다
##se
세계에
##나오게
순진한
양념
이용하고
아니니까
일본놈
너무너무
신천지랑
꾸준히
말하는게
하노
##마가
##청정
이런것도
붙어서
장관을
애들한테
살짝
살고있
##촛불
저기서
봉사활동
그토록
재발
##아니라고
미통당은
##서비스
##학대
북한가서
댓글모음
##식에
일방적으로
일보
##연기
##동물
##독한
대선때
개그맨
무증상
아사
조지
모으
몰살
사노
이라도
##원칙
모른다고
발전이
깽판
살릴
##질환
##하듯이
##폐지
##지않다
말했다
무례
세우고
이면
##숙한
사람과
여론조
출세
터지고
##드리고
국가유공자
아직은
군대는
##없네요
##내역
##목이
##가족이
애써
주진
할인
국론분열
뽑을
창원
하러
워마
자민당
때리
맞나요
##아니지
대단하네
목소리를
##고요
##정권에
바라고
사는거
##여자가
외국으로
넘어가는
관행
그것은
돌리는
##들보다
##죄는
##입은
##함과
일반인이
##공동체
쓰지마라
그때도
도태
말았
폄하
##줘요
외국에
##보임
한번에
기술이
번호
아웅
암울
##락으로
##토착
##들처럼
##불능
깨어나
법정
헐뜯
##출동
남에
너한테
카풀
##범이
댓글보니
경찰서
내려라
매수
체육
##간거
##오는데
소굴
편집
##구절
##말던
##갈때
균형
##규명
쓰레기들은
##나오고
궁금해서
군복
미쿡
너무한다
방법으로
됐는데
##전략
자한당도
대해선
출산율
우수
해보고
##주시
민심은
나랏돈
되도록
속시원
치명
##확진
개개
개돼
암덩어리
##의식이
##목을
인간쓰레기
문재앙아
안보이냐
버틸
헷갈
##단에
공무원은
뿐이지
피땀
사법농단
##쩌구
##병으로
아프다
괴롭히
디질
##피아
없는듯
이름도
##을거고
구호
벗고
올라서
하하
미쳐돌아
##자동
##수술
덜떨어진
들여다
객관적으로
뜨고
만난
##터진
무기고
실어
아껴
##금도
문제라고
개방
쓰면서
##들인가
##정지
북한하고
양심을
외치던
부하
독재가
전체주의
내기
멘탈
물갈이
오십
인과
아니가
대구가
싹쓸
진리
키울
##거릴
##잡을
배신자
미성년자
단교
요리
##계에
##궁금
선택적
심재철
문을
퉤퉤
어처구니가
주댕이
##국회의원
##실하게
##땜시
자식도
적폐가
막말로
뽑으면
##자식이
강남에
초토화
이사람은
##직에
##해보자
##오염
돼지가
등골
좌지
이익이
일삼는
##전화
##갔네
##갑다
생겼는데
홍영표
##의료
##값도
찌질한
어쩐지
월북
##저것
지들만
##자로서
거네
처참
핵개발
선거조작
5월
토해
경찰들
연합뉴스
야비한
장외
##등신
이득을
##부채
비판을
얘들아
헝가리
사라지고
문주
아이는
출발
누구든
할거다
난리인데
엄벌에
박대통령
철밥
장사꾼
##않는
##각이
빨갱이라고
기자양반
무단
보편
경제나
##스럽네요
한번이라도
난리치
##줄알고
사람입니다
욕먹을
수준은
없구만
조회
쫒아
조아
커서
환자가
##고에
100명
속셈
악성
##조정
##봉쇄
이게나라냐
이상의
왜냐면
행정부
김문수
무마
안주
절차
##전히
북한처럼
보고싶다
있었지
어르신들
말려
##만드는
##편을
생각하는데
몰라요
으이그
##라니까
##대서
##될지
이유도
알바비
독립군
자존심도
사리분별
the
양파
##비아
소비자
됐고
##길로
문재앙이가
미쳐도
광우뻥
##계로
무슨죄
어린애
건방
전용
편협
##하기에
내정
둘중
주장을
##을수도
##셨나요
##키우
##삼아
자국민을
아닥하고
먹어야
압색
##들게
##었겠지
실패한
정의로운척
날씨
논의
술먹고
아네
유언
저출산
##같고
##사서
사악
##대전
##쓰기
이국종
여당은
청와
탈취
##기생
드러난
괜찮아
딸도
살리고
말아먹는
될것을
손실
임산
##웠다
##혐오
짜장면
겁박
단호
문치매
주로
##양심
대일
원인은
##화점
##는지는
인정하지
좁은
한발
##전파
챙겨라
그를
##했었는데
##편에
##잇는
삼성을
##자들이다
운영하는
##발전소
보는거
보냅니다
싫은데
유흥업
김태우
앞날이
재건
##스에
팔아먹는
허수아비
안돌아
똑똑히
##해산
##더라면
사라져
끼워
만나면
할꺼
##한태
언론플레이
외국인들
힘들지
거리두기
##행위를
됐네
대통령이냐
공개하라
그는
멍충
속상
##질이냐
아나운서
귀가
욕이
용납
짓이다
포용
매국노들
김정일
##않고
##야할
대통령이라는
##만원이
##나불
##족이
통일을
가네
씹어
##셨네요
##한다며
고양
그들만의
날리고
논리는
망나니
옳다고
철판
안하니
주기
바보냐
재수없는
무얼
##요청
하시지
회사에서
왔다갔다
##경화
##태를
##화수
이론
##방위
##쳐먹은
NO
부부가
없어야
줘야지
##해를
##km
##국민들은
여성단체
가짜뉴스로
일왕
회피
##천만
장하성
빚내서
문다혜
선별
편드는
##개판
문서
##때처럼
##란걸
기레기들이
시원찮
죽였
상속세
소가
정세
판국에
##ic
##강점
권영
귀한
##적이네
##기사가
고령
녀석
##다보니
##된다면
이성윤
음모론
되돌아
딴나라
유병
누구에게
2위
까면
시달
욕하면서
##버림
중국입국
거짓을
서울시민
기레기가
##문제로
좃불
##한심
쓰레기네
586
마시길
##넼ㅋㅋ
##에서나
생각에
논리적으로
적반하장
유급
파견
##는디
##유학생
눈치만
노인네들
버젓이
알수가
옛날에
앵무새
##인과
##님께
##편은
무너지고
괴뢰
몇푼
살살
주특
했잖아
소리야
한심해
김정은은
과거사
감정이
도우
빈부
않았으면
##인거냐
안듣
연일
유체
자숙
징글징글하다
가성
그름
친인척
잘못했다고
건물주
꼭두각시
방향으로
거긴
털면
##차반
댓글들이
##드려요
메인
며느
안했는데
진지
피같은
빨갱이를
울산시장
도를
여혐
나오게
##OOO들
풀어주
현장에서
##계약
##하는데도
구속하라
##마세요
##싶은
##00명
지지층
보여줘야
해결책
갱상도
노숙
부르고
신체
할짓
##게이
##드가
##회용
##는거보면
다니지
굴복
##식도
이런것들이
##면서요
불렀
윗대가리
포토
대하여
적폐세력
웃는
있더라
초대
키우고
장관은
사고방식
만일
미꾸라지
악수
가기
렉서
밥도
잘알
##있다는
##인가보네
목사가
##없지만
봤나
이북
##국이다
우한에서
가방
놀이
돈좀
종부
##구마
촛불이
좋습니다
덮으려고
##답이다
##소리는
남경
당황
보이면
성능
한국인은
미국이나
선거가
없었던
##물며
누가보면
구속시켜라
중국인들이
##떨고
##익을
잡아다
좋다는
##나베
##상대로
시급하다
볼때
##할일
##없는거
학생이
뭐여
추접
때문이지
54조
간만에
승인
##거려
##이미
아베와
우파는
쪽팔려서
장기집권
마비
해대는
##몰랑
##이나하고
##한거임
신천지로
난리네
됐지
설문
##것과
관심없다
앞세워
그중
소녀
학습
##하믄
##im
물어야
줄을
##도의
##무는
떠벌
여튼
##자살
호의호식
3개
##은행
낳은
종사
침뱉
##질도
##하군
##발로
창조
##창출
진보의
대거
잡아먹
##친거
##사건은
정은아
국민혈세
지겨워
##같냐
##대구
##소한
반성은
2년만에
문씨는
ㄴㄴ
얘들
주권
##면에
##역사
다른거
이것저것
얘들은
##일어나
문제의
받아도
앞장서
본보
##하시지
조선족들
##지말라
독립운동가
연평도
사로
확률이
##늘어
경제적으로
서민들이
두들겨
명문
심정
##히게
##치나
조국이랑
신천지나
선거를
국내에
상태에서
살아야지
200만
무고한
향후
##와야
그러니깐
누리고
뒷돈
조사하면
권리를
선고
##꼴이
##자들과
##어떻게
장식
출석
##안해도
##미국
##🇰🇷
쓰레기다
신천지도
기자들이
본격
성조기
철새
광주시민
좌빨들아
##기업이
잡아넣
##집단이
볼만
##지진
##불어
하는말
대통령에게
더큰
이정
일들이
천천
##무역
##찍어
서민을
##해주지
공정하고
가재
##보라고
로스쿨
잔머리
편안
##꺼라
##놔야
사과도
운운하는
좌지우지
경력
인수
찾고
##한마디
죽여도
씨부리
만주
##망상
##속히
김정은이가
생활비
틀린말
자전거
대장
##부터는
##고있고
응원한다
할머니가
판결이
스타일
간신배
안하네
##아닐
##자나요
귀국
##할려면
##문학
인정한다
바람에
입맛대로
사기를
성폭력
안지키
##세우
일입니다
패싱
##또라이
지금이나
38
막지
개인적인
가는거
권고
케이스
튼튼
흠집
##프라
##결혼
당신들의
죽창으로
딸을
출처
##시키려고
7억
가나
북쪽
한다는게
##협정
그러는데
안되니까
발급
본토
쩐다
##해온
적폐다
애국심
밤에
##코스
민족주의
쯧쯧쯧
무언
##계획
경제파탄
엘리트
포르
##학원
찍어서
칭송
##주빈
##든말든
##찬양
부작용
수색
주소
##롭다
알고보니
김현미
대전
##직한
박근혜도
안보인다
감싸는
안했으면
##묵고
인재가
24시간
명분이
해군
##수고
그사람
남침
되려
똥은
변경
사니
##방역
##그림
투표로
사용하는
규탄
강대국
되겠지
열린
##먹지
제정신인가
같다고
같은데요
군인이
아세요
환수
##리지도
이해할
이때다
##좋고
문제고
하고도
아무데
어쩌나
미군이
유체이탈
석유
지돈
##대단
실화냐
흔들어
##이와
이분은
문희상
뿐입니다
독재국가
남자도
근거로
들으면
저래도
못할망정
지구상에서
왜이러
##권에
##머리가
의지가
파고
##제공
##딸이
검사들
대응을
1시간
들어올
이러고도
행태를
여의도
##재를
팩트다
이놈아
##면에서
##대나
##빨고
선거는
맞는지
예쁜
행위를
잘못한게
도덕적
연방제
중학생
할까요
##검증
걱정하는
##할라고
##먹어라
##원지
##뽑아
##합리
##렸나
그런식으로
똥구멍
영변
이영
##거리네
사고로
멈춰
번역
전에는
##질까
##식구
##버스
좋아라
대책도
안전한
그룹
##겼다
이만희가
오랜만에
싶고
##자들만
시키지
말야
이들의
정쟁
##시를
자유민주
드러나
확인하고
입장에서는
가운데
고액
##졌냐
##소니
가리고
간부
성형
##법무
##으니깐
참수
보내자
##고싶어
이리저리
2개
정국
##업을
##본적
법위에
문재인아
##한테만
조원진
교류
늘리
##엇다
대다수의
반칙
설립
안오
##당하지
다음엔
강력히
##위험
##광고
더구나
##지는게
##감에
해야죠
그자리에
남들이
부여
쓰지말고
자초
쪽팔린
너랑
않니
앵벌이
양극
없었는데
학폭
의사협회
정답이다
저새끼
##군다나
##망을
이따위로
납품
다하는
카더라
##바가지
##에게만
사건에
않는가
바꿔서
구구절
부실
어긋
오냐
원장
원천
##했죠
사회주의자
공직자
##계층
##ot
천천히
이여자
##느낌
##무니
문정권은
양키
얻은
30프로
눈으로
##기라도
##❤️
아이디어
결혼을
ㅎㄷㄷ
끊임
끝을
암만
입니까
조작으로
언제쯤
자빠져
기쁨
되는거야
죽겠다
##해보고
##계의
##하거라
서울에서
시점
일로
##이니깐
사노맹
단어가
그런거지
골때
동선
너희들의
악마같은
뭐했냐
부려
죽이기
이런식
진정으로
과도한
속에서
알텐데
제보
교안
맞으면
야합
##이한
##면을
##같아요
안되는게
##아야한다
나올까
먹고살기
지잡
##테러
여러번
장난질
말아먹은
나아가
사는지
소련
##났어
##될거
있을듯
뻔뻔하다
괜찮다고
조주빈
##쓰네
##이라는거
##하네ㅋㅋ
세입
##보는데
##기의
##공신
이상하지
과거의
개차반
승차
##다니며
##만들어서
구상권
등의
면마스크
없을듯
잠복
느끼고
코리아
##생명
##절대
얘기하는
사고는
손혜원이
부른
##절로
##종의
##og
##할때가
기다리
경인선
땅을
똥오줌
몇이나
무대
일본이나
비교가
의료진들
더블어
치루
품격
활성화
고딩
많으
##쪽바리
##유착
개천
낮춰
맞잖아
별걸
##바글
##봤나
사이버
연예인이
답이없다
마땅하다
n번방
동영
팔면
생각하는게
외압
##우한
##따리
지키기
무료로
독선
되네
영양
##데리고
##대밭
경우는
동해
매입
엄연히
##성한
않은데
늘리고
브라
최성
##사지
##대면서
##던데요
무섭고
빠져서
사야
연령
##같아서
##유출
##줬다
판단이
신경써
대변인이
생긴대로
문정권이
금메달
리스트
이재용이
##보내라
꿈꾸는
입닥
정신이상
이건뭐
세월호때
조현병
##맞은
바뀌고
33
물량
우매한
##것보다
딸랑
숫자가
진즉
##마진
넘어가면
##문제를
재산이
본질은
구축
사장이
생명이
약간
##곳도
##ve
생각안
교민
마케팅
뿌리고
##르다
집합소
격려
나부랭
법대
##기능
##거리면서
3차
##인구
##분들도
##유의
면역
북에서
설리
안보를
수십년
꼴값
모시고
색기
아니잖아요
정의당이
지난번
영탁
자르고
하겠
##님께서
지랄하고
개판으로
##여자는
동맹국
긴장
망했다
못해도
왤케
했구만
##세월
교묘하게
뇌없는
물에
영부인
##싶어
##이었던
가리지
##키야
##4년
지지하지
위안부할머니
통일이
##🤣🤣
되었으면
제정신이냐
집어넣
앵커
오랫
케이
##보려고
##적으로는
좌파독재
이상하네
궁금해
가깝
관료
됩니까
소원
아들도
양육
욱일
수사하는
10명
팔아먹고
과장
반으로
수당
왜자꾸
##인물
다른가
발전을
외치면서
감금
먹어서
배현
##치니
##죽여
학교에
25때
돈벌어
##뿐이지
##김에
나오는거
토착왜구들이
벌레들
마디
못막
앞에서는
아니라서
좌빨이
시대를
주워
##님들이
##석을
결단
몸을
믿을수가
직업이
사찰
하아
##시키는게
친일매국노
민주주의의
경찰을
대대손손
있었냐
화이팅입니다
하늘에서
만드냐
능지처
32
남는
입도
처박
##낫다
문제인데
경제정책
##이었고
음악
있다는걸
따뜻한
도적
동감
본적이
팩트로
마찬가지다
밝혔
뿐인데
역활
출퇴근
한몫
멍청아
자살한
합리화
OUT
중권
##다녔
##태가
##세도
조장하는
화이트리스트
생겨서
친절
년놈들
##안고
최강욱
당나라
많네요
비교를
##사망
선동꾼
이성을
천만원
아이들에게
보관
유은혜
태블릿
##네는
##관심
##쓰냐
나오는지
정상인
의견이
써야지
피부
##인한
하는구만
빨갱이들아
이해는
니들이나
한말
##하거든
##표를
##물러
그러다가
돌파
##마저도
걸려도
레알
순서
##하셔
##표현
언론인
과정
이놈들
주뎅
언론들이
급격
더민주
말던가
세치
재활용
##무섭
##버릇
개떡
말살
오토
이것을
##스테
##나나
상상도
첫번째
정경심이
ㅅㄲ들
떠오
못한다고
위생
##따로
들어가고
국채
이만큼
하물며
##취업
##값에
기본이
이룬
##도하고
##요구
##일수록
거짓말쟁이
이래라
만에
조기
하루라도
##르네
하는건가
방송을
민주주의는
모양이네
관한
더군다나
조작미터
불법이
상가
얍삽
##줬는데
##논문
기업의
앞장서서
2배
도무지
이말
##졌어
태어나서
뜬금없이
전복
합작
해결할
알았지
무작정
기세
참전
##나가고
##갔냐
친구들
올려놓고
검열
낄낄
두드러
보지도
##거에요
##ir
대통령이다
잔인한
중국놈들
자기들은
이해불가
들러
숭배
##한다니
대책은
후원금
내보
보훈
삽시다
육갑
생기고
잘한게
##수다
##있나요
소득이
부추기는
꼬우면
발의
쓰게
장비
##감정을
신나게
직원이
##질이야
##견을
##플레
들어왔
받는데
원본
인용
##상황에
##교수님
급급
날로
두껍
성소수
아몰랑
##불통
병원에서
부산대
기상
슬퍼
옳다
잡았
편한
돌아가라
세계적인
집단들
주민센터
구구절절
그짝
벼락
비리는
##때려
##하란
##랐다
눈빛
셀프
쥐고
한숨만
버림
소개
교육이
나왔네
부인이
##버리지
나이도
일제강점
빨개이
못하겠다
이들을
입금
##자체를
문대통령이
저소득층
꼼짝
미사
##때나
기업에
교인
효율
##이어
##할배
문재인에게
공공기관
수준이네
심각하게
터져
##부리
그나물에
주52시간
##시효
##꺼고
구속해라
반토막
분류
주시
##넘아
##워요
여지껏
들어오면
살아도
경찰도
장관으로
돼지들
##지마시고
가해자가
것보다
두꺼
사단
자원봉
사고방
경쟁력
안올
안하면서
입장을
문제앙
선동으로
주냐
##1년
##소송
##렸냐
국회를
자연스럽게
없도록
통한
보내면
##대표가
다녀라
##외로
하고있다
국회는
시작이다
궁금하네요
한테는
##한채
좋은일
끔찍하다
봉준
잊혀
퍼주는
편을
##불안
집단이다
정은이한테
무혐의
잘하지
흉악
##르텔
##드릴
알려주
참여연대
종양
혈압
##을땐
##하셔서
있지요
놈도
레이
맛을
##해달라
반란
오후
응급
공부하고
개망
인가요
##세워
##자니
일본만
##이라더니
##하고있는데
뭉개
추석
##마누
##가는건
세계의
안지
죄냐
##데가
##트는
1호
넣어라
##연예
##의원들
물어봐라
집회를
##새키들
대립
않네요
짜리
##다오
##자면
OOO같은
후안무치
비위
시세
##연봉
##대라
국민투표
알아보고
도와줄
##이었음
답없는
##해제
부끄러
느그들이
무릎꿇고
순공감
##허가
##하기위해
무책임한
5g
##듣지
가지말
3만
거듭
욕먹는
흉내
조작을
만드는데
개탄스럽다
덮고
줘서
증거는
악랄한
능지처참
놈이네
먹어도
뭐다
북한주민
국대
덕분
기사나
좋아하고
책임도
본능
##당하면
중요하냐
자국민은
글이
살처분
심어
##회를
사실인데
##하기로
9월
경원
먹었
멀었다
민감
영세
짓고
찍으면
청문회에서
니돈
##했나요
##버둥
##긴데
아닐텐데
논리면
##시계
달래
##레기들
꼴통들
고고
늙어서
닭년
유린
높이
방지
설령
악법
우월
좋음
패널
한것도
혓바닥
##진창
베이
일인가
##자리가
##움이
##그리고
##하면서도
변호사가
어울리는
네티즌
니놈
##하기만
그만해
입국금
무엇보다
비닐
아닌게
정책에
불구속
나네
잘한건
떨어져서
미래의
났다
벌어서
치를
해임
##차도
##극우
만들어진
방한
산다고
쪽으로
침투
하기사
했어도
##it
몰아내자
논다
서슴
빨아대는
것들을
말하는데
이사태
잇는
다르면
미치겠다
1만
상호
말이죠
월급이
보이네요
철밥통
감추고
말한다
성관계
##위선
##is
양심에
민노총이
변하지
전공
페이스
도대체가
종교를
묵시적
불쾌
연속
##방문
##마시
##명에
묵묵
차로
총리가
##치우고
##병을
보여주세요
미세먼지는
가득한
너처럼
아무말도
한번만
서민은
상식적인
돌이
조국이는
냉정하게
떠드
##치는게
관계를
SK
쑥대밭
트럼프도
그보다
단결
머지
스럽다
##역할
##입장에서
처음에
드러내
막가파
##을라고
마음의
해결될
과거를
입장에선
나두
어우
자신들
일자리를
보기싫
당선된
##000원
꼴에
등이
민망
##아무
##나쁘
##야함
단순한
젊은이들
어떨까
지네들
##한들
##비서
##공사
##하지요
살인을
보기싫다
가계
우르르
##마을
##댕이
거라
어쨋
하느라
##오래
##교주
##문제다
구라미터
4대
개잡
잘가라
흡수
##품을
중국에게
눈감고
분란
아멘
저쪽
전도
한놈
국민청
##소리냐
만드는게
계집
쓰레
##는다는
##거잖아
##히네
##동의
##뽑은
##명씩
정말이지
살던
##지는거
나라꼬라지
잘못이지
이해안
미중
부과
살라고
안갈
주는데
##쇼를
환장한
미처
우체
##체류
부지
편들
생각해봐
말바꾸
##한대
##기는게
댓글만
상황은
깔끔하게
부리는
치욕
##러스
##ㄹㅇ
알수있
욕먹고
##있다면
##린가
80년
뜻대로
멸종
권력은
전세계적으로
성공한
돈이나
들었다
##부턴
##해야하는거
초기대응
딸년
항복
##보이지
10만
##고있으니
하루이틀
해서는
문빠들이
능력은
못하도록
기승
당해봐야
못이
순시리
한국만
무능의
수십억
연동형
주말에
저딴게
당근
모녀
음흉
##감사
##파리
##파티
낮추
문가야
참패
텅텅
##잖니
##커녕
대기업이
개소
불체
자행
절망
##주시길
##화하고
모르겠는데
보수꼴통
있었음
시장에
보여주기식
ㅍㅎㅎ
과감
때린
줄줄
크고
판치는
##웃음
우리나
##시킨다
어른들이
트라우
##방으로
##수령
##윽시
하루가
고맙다고
공기청정
강아
잘하는거
##해준다
부모들
마누라가
백만
차관
##장과
##되요
##신가
##력과
##타워
사람이면
이나라에서
어렵고
남탓만
지출
##달아
##종자들
##되었다고
낱낱
노가다
대결
시점에
##어려
##하든지
##신은
##발생
사형이
옹호하고
공연
나옵니다
탈북자
갔다가
못받는
##눈에
끔찍한
먹는다
안되요
뇌는
있었다면
미친짓
돈벌이
아산
치부
##정권에서
##하시나요
의미를
전국적으로
불화수
##시기에
일본인들
입국제한
검사도
빼고는
닥쳐
뭐만하면
저년
##았습니다
상황인데
나베는
##😱😱😱😱
날리
쇼하고
일치
있겠다
주는거
##경험
##타도
모두다
조중동이
##민을
##옹호
기사네
너네들이
동북
부모를
집회는
공갈
키보드
흡연
##두리
##언제
미국인
뻔한데
위성
적절한
생각과
살인미수
불공정
말지
실형
이기는
호황
##하는군
정권도
내려놓
망해가는
관제
등으로
앞잡
눈치를
가라앉
입장이
##사모
##중앙
##끌어
OE
개처럼
달린
더하면
밥먹고
투자를
현지
##아이들
미국처럼
찾아가서
국정을
노조는
면죄
몰빵
바꿨
언능
이수
작금의
사회주의로
제1야당
난무
독도는
마저
##해선
##발을
##력에
##리는대로
자신은
##대통령은
무려
위기를
통장
특기
할머
##일날
애초부터
너거들
소시오
##주니까
##지옥
##뿐인
미친개
근거가
문빨
발뺌
잣대로
##겄네
문제도
모든것을
걸리고
링크
성립
안받고
##줄아나
그랬다
##많은데
바짝
않습니까
초딩도
그러게요
설훈
##대상이
##전부
세계적
들면
베스트
##내미
저런식으로
이번선거
미쳤나
바글바글
결사
과대
돈버는
콜라
한명이
좋아할
이름만
사죄하고
못살겠다
그전
전북
흑인
##능후
##정치를
간접
벼슬
##당하게
부정입학
3류
님은
레임
전액
해볼
##신경
##는데요
조작하고
능력을
청와대로
말같지도
선을
##보고도
있을수
낫다고
내서
다알
배송
##해야하나
경제활동
쇼는
##할께
##긴한데
알아봤다
목숨이
가벼운
되는거냐
일이지
일가족
##자한
##박한
##까지만
순식간에
디자
믿으면
친한
사건의
실업률
일자리는
국가원수
당하면
잘되
짝퉁
##병에
잡아다가
이성적으로
국가보안
가뜩
나랑
따름
비자
왜놈들
치워라
할수가
깜도
총기
클릭
##ae
이용수
웃기지
적을
국회의원을
만든다고
aid
면접
일년
##행정
반대하고
원숭아
조심해야
낮짝
##졌음
##못한다
범죄자들
새키들
잘돌아간다
말해도
성접
식사
조합
기어들어
듭니다
싫음
아메
오지마라
해킹
아니란다
완전한
확실하다
일어났
이석기
총출동
##가보다
##싸고
김정은을
한수
##될것이다
##투어
실드
해줘
##진을
주둥이를
일기
##스레
##곳을
##판매
##정권때
세계최고
분명하다
못하다
했구나
피해의식
새벽에
발버둥
폭격
한계가
##주변
##부대가
3040
화난다
##밑에
조선의
알고있다
당연하다
없어지면
##고있냐
완벽한
7시
돈없는
속을
##어울
##있다가
##천국
고백
낙인
##명령
책임지는
##사건건
공주
안감
정년
회사는
##한것이
##잘하는
새기들
저축
참내
애완
##을뿐
니들만
행동하는
다르다고
기생충들
누나
오르는
##주장
##침해
조직적으로
##가의
##시하는
##님과
처음으로
생각해보면
너무나도
영광
재검
접수
##새가
##는거보니
내려야
드러나는
##교육이
짐승만도
유투버
이땅에
늬들
뻔하지
시즌
중증
##도둑
##건설
##천이
##뻔뻔
친일매국
잔당
적페
##간섭
고스란히
삼청교육대
니덜
##졌나
##안은
##내냐
##끝나고
생각한다면
사라진
단계
몇시간
발달
북이
탓을
##버렸다
응원하는
기레기들아
끌어내려야
악플러들
손해보
##성의
##대선
##말하는
##관에
##챙겨
도요
모이는
문구라
밑바닥
부정하고
틀딱들이
시다바리
끊어
너무도
나쁜짓
날뛰는
구만
스카
가장한
올바
##할뿐
고위직
공소시효
그자체
잖아
짓이냐
한판
##프트
##씨의
빨갱이로
50프로
문가놈
거리가
노비
디져라
옆집
화학
##가져
##업이
가라고
난리가
##쇼핑
그로
상장
싸운
이정권은
##갔으면
프레임을
지껄이
쉴드치는
가치도
땡깡
철학
##지라
반대한다
장난하나
있기에
##방을
중심으로
##강간당
상납
코로나바이러스
물을
박능후
아니더라도
##사람만
지랄하네
할머니들을
혜택은
##론하고
##XX
부모들이
하기야
팔아먹은
두려운
못차리고
부도덕
가뜩이나
곤란
##에대해
아닌건
공개적으로
처음엔
바미당
너보다
논리를
애들아
용인
##스코
##떠는
이럴줄
상대를
패거리들
말던지
저렇
##강행
##라고는
되는구나
3명
답을
바르게
죽지
##등으로
##롭고
##렸어
주민들
무능력한
##셨다
남의나라
독감
##경은
김정은과
2017년
##거같다
##교가
마스크나
개정은이
슬픔
증인
##권력을
##차량
우리동네
부르지
않겠다
알릴
텐트
##들여서
##세습
##애미
기다리는
출신이
갖다바
사사건건
한줄
형이
##속도
##왕따
저런건
되었는데
습관
자작
화합
##지네요
##모가지
##금액
알았냐
한나라의
고추
그닥
빨강
인식이
취득
##놓은거
##주소
정치판에
공무원들이
일어나는
뒷전
개재앙
봤으면
지면
하겠나
짓거리가
만도
싶은거
알겠
##화이팅
##버린다
##평생
##광덕
판사들
우울증
##보나
##물도
사건도
일베들
물러가라
죽여라
백인
잡혔
##말의
##죽은
하야해라
무주택
사기업
사전에
수록
실무
알지만
정서
##기라
##해야한다고
##거리냐
불안해
##지못한
##맞추
한심하네
빨갱이라
대통이
의무를
아우성
##스러울
내다
말이네
있는건가
간호
사명
사탕
범법자
우동사리
김호
##해봤자
##럽네
##하리
##운이
##전도
##끝나면
청와대를
억울하면
규모
로봇
헤어
검찰청
투표를
노무현때
황교활이
끼야
##중심
수사에
세상이다
신도들
추구하는
불을
일한
자의
찍어준
토지
##전사
해야하는데
다니면
##이었네
이후에
곳곳에
도찐
재조사
편들어
환율
훈장
사리사욕
심사
양정
챙길
##못하면
윤석열총장
OECD
뽑지
여윽시
##진않
고등어
뒤가
성찰
지워
해보세요
바이러스를
말그대로
실종
싶음
연습
##기기
##쓰지
자기의
해야된다
1개
고장
망조
##침을
##지않으면
씨부리는
변질
보석
분별
##대장
##든다고
##만큼도
발목잡
##물건
친일이
내려놓고
연예계
조또
##구조가
촛불은
두둔하는
바치
박근
##짱개
##잃고
1주
못하는거
서명
##가짜
우리땅
##이었지
뇌를
주사
쥐박이
지리
혈안
##인냥
##년들이
##해야됨
21세
납치
인제
##들좀
##세탁
##듯하다
##TS
근본적인
구역질난다
못했
적임
##치산
##다는것
하는일
국회로
가격은
예언
행동에
기회주의
대가리는
정통
주면서
차는
패륜
모르는게
대가리를
문죄인과
조중동은
수신료
깡통
체감
돌아가고
이럴땐
죽어가는
죽음으로
여기저기서
##티비씨
AI
내몰
##하였
##렁이
sid
나지
되는거다
우호
##탈출
거북
먹으면서
물가가
지만원
##부르
여자의
박지
불이익
싶을
##꼴라
##있을까
##세력들
그놈이
동결
##더미
없는것
해야하는
악마의
빌붙어
주진우
##느끼
##스스로
정부나
자유망
대처를
외제차
워마드
사먹
토막
한없이
정상회담
난리냐
이정도는
엉망진창
역겹고
나네요
뉘우
배워서
수리
적절
##베이
바라보는
이해찬이
권위
니편
떨린다
입사
##는거여
더러워서
가구
똥묻은
볼때마다
중에서
##우려
일본처럼
중국가서
전라도에
비추
알만하다
##걸레
정의로
세계를
충청도
막대한
청정
타락
##마리가
##키가
##하시나
이하도
국경
태반
함박
##공약
##지는구나
저지르
선동질에
언젠데
가세연
간에
구치
되어버
##식민
##기구
조사도
시작한
느껴진다
보증
신세
##까이
##대는데
##더구만
##끼다
##랜다
##답네
회사에
공화국
머니
##모임
##깁니다
투표권
밝혀진
##할수록
하시죠
표현을
또라이들
떠는
차원이
##례를
##맞다
##석아
월급을
대표님
사업을
600
법원이
##화해서
##겁게
##같은게
나서야
나게
무게
적응
흔들고
##자슥
아니면서
신문사
대화를
설치고
실세
영남
##왔으면
7시간
앉았네
착한척
##수급
##신다
##품이
인생은
대선후보
미디어
전술
제동
##양간
##래기들
다음날
알았네
가격을
웃기다
목에
##영향
pc
몸으로
성질
##자네
난리야
##조선족
추미애가
보상금
##사기단
낳아
살수있
중화
##민들이
##살림
##할때까지
손자
회원
나라인데
청와대의
50만원
누리
못합니다
최하
하드
##라네
##스러움
##시켜야지
폐기물
에너지
우유
주광덕
출시
##재팬
##과학
시작된
대중교통
동아일보
줄여라
##당아
##음식
##저지
##죽음
해야하나
##할때도
나이를
기회는
보건복지
견디
돌고
똥이
못내
하향
호기
##직으로
##갑네
조국에게
양아치들
몽둥이가
따질
바지
하겠지만
하든지
핵시설
##모든
저런데
바로잡
똘아이
##집값
##대우
##버렸네
궁금합니다
몰아가는
피해자의
일주일에
흔드는
##거에
##낮은
##시키려
보수우파
조작하는
일반시민
5천만
국어
##흘려
인간이네
상관없다
문의
보아
실수로
연말
유아
##개찐
감사드립니다
한장
##진행
##동포
##ㅅㅋ
문제입니다
##경제를
현정부가
불가능한
발광을
법치주의
##자빠졌네
속고
잊고
해본
살아가
재앙을
않았을
낫겠다
보존
##맛을
학생들은
의도적으로
경각
하도록
이러는
화가난다
천벌받을
깨져도
나을
##점으로
##구름
##맞네
어쩌니
헌법을
이낙연이
젊은이들이
사로잡
레임덕
꿈을
말인지
불어
##하십니까
##넘들아
##94
없어져야할
약탈
했어요
##부리는
##기밀
##끼들아
외국인이
림종석
만나고
##방지
##군을
##내로
##온다고
사람이네
미국이랑
결혼은
원숭이들
할줄아는게
공간
비꼬
암것도
좀만
##구멍으로
##ong
sid1
남쪽
말해서
살고싶
안중
찍는다
##보는게
정권때
상관없는
공감합니다
혈세를
처분
쿠테타
환불
##한놈
##16
잘못한건
때문입니다
지구를
뵈는게
열불
허술
회식
##었네요
##픕니다
##나무
##존재
올라갈
안가면
초래
##가스
##대다
##말이냐
##사람들도
생긴거
밀려
부러워
삽살
##적이라
##사니
국민들아
고정간첩
내리는
다르고
못참
한거냐
국정조사
지옥으로
부리고
불만이
##비례
##천명
##남편
문재인한테
집에가서
늙어
딸래미
전전
##올린
중국처럼
개소리냐
경우도
일조
있으며
##군은
특혜를
2만원
근성
비록
어땠
해온
##구매
##호는
기사좀
만행
손잡
시집
이은
흙수저
##귀를
##8년
국민으로
정신병원
공산주의가
박정희는
##정치인
막말을
들지
불평등
##친다고
##넘의
##초에
사람죽
인권변호사
별개
안티
현역
##수준으로
선택한
민낯을
부끄러움을
세게
한정
##자냐
##마련
법무부장관이
등신들
바다에
허허허
쓸모없는
매주
실체가
##찍은
##깽이
##하자면
30분
만든게
광주사태
쪽팔려
넘는다
대화가
메뉴
성욕
체험
황금
##가치
범죄는
없어지고
논란이
초중
외치며
대갈통
개구라
성인이
##판이
##냈다
논리도
꼬라
당첨
광화문으로
청화대
비트
주적은
##보러
386
나을듯
수급
주무
##나야
##90
자기만
종교는
되었네
2년동안
하느님
종전선언
렉서스
오라
지대로
형성
수출규제
갔으면
갖은
낮아
##풀어
두번째
붉은
선제
위기에
##고는
##중단
##친일파
김연
되지도
아시죠
얻을
이색
##조절
국민들과
이해한다
서울은
국제적으로
나설
모기
몽골
파리
##두지
##응원
한국남
정치질
국방장관
백프로
세상의
헌법재판
님들
목줄
속아서
쓰잘
올려야
##전에서
문재앙도
현실에
##민주화
벗겨
실상은
호칭
##밝혀
##💜💜
KT
국세
여경이
##슬림
##문재
여성의
최태
캡쳐
##했다는데
도덕성
제외한
추가요
키웠
일본인이
진정성이
능력있는
착각하는
구분도
계기로
쓰리
##신들
##본부
아니었나
반대하면
스스로가
도려
##아저씨
국회의원도
ㅈ같은
유유
청춘
##산을
남편은
##👍👍👍👍
같지도
눈도
뒤늦게
바빠
바램
사돈
필터
##례가
페미니스트
ㅅㄱ
거대한
문이
아끼
우두
##한답시고
##놈들도
가짜뉴스를
받으려고
없더라
열고
재대로
행세
##비하
돌아올
##한다는건
250
차이나게이트
가래
못생긴
졸개
##가입
##심도
세월호가
최고로
교회에
루저
알어
앞으론
일일이
##과정
##정부를
나온게
기대합니다
세종대왕
빈부격
당은
받은거
신봉
우발
운명
지맘대로
누구인지
오늘날
##하지않는
PC
뭉쳐
사러
시인
자부
질이
이러지
미래에
중국인은
야근
얼어죽
##바위
교회를
신도시
뭣도
불태
섹스
엠비
##으시고
##사면
##더러운
한국땅
가족도
##떨어지는
가득찬
불로소득
딴지
비율이
여편
장병
##장비
##부제
##처먹는
나오는게
도와주고
다안다
연명
자백
##일거다
##교수가
문제에
남자를
##했는데도
처음이다
BTS
감형
마주
얻고
운행
##두는
##하내
##박근혜
자유대한민국을
났는데
대륙
배아파
정지
하구
##안되면
##인건가
하는일이
거짓말에
사드보복
어지럽
기성
동지
오락
##줄아냐
인간적으로
하고있는
##정부에
어려울때
최후의
임산부
2시간
넘치는
심해
저번에
죄책
하소
귀에
사스
품질
##겠노
##퍼주고
##쟎아
사기극
이야기가
집안이
두번다시
모두들
늘어나고
붙잡고
##업계
##작전
##될거다
능력없는
골든
할때는
##그럴
대통령에
싶어요
##이었는데
##주행
##화폐
##살자
머리속에
고생하는
밝히면
없는거지
##청탁
문제인은
거짓뉴스
##고있어
바보들
바꾸면
기득권을
구한말
꼬락
대안을
미세
시국이
터뜨
팔이
##우스
조국보다
미쳤다고
그많은
달성
보지말고
엉덩이
##드시고
##한거는
우한코로나
바보야
##나냐
##소환
준비나
청문회를
끝나는
##일어
##부리고
##원인
##털어
탄핵은
김정은에게
감염된
안하무인
널리
백원
알기나
자괴
헬기
##아아
아니구나
사람인가
책임감
사기치고
1500
##필요한
떠들어라
##등은
안되나요
아이콘
다물라
사대주의
안주고
하거나
현행
##이렇게
##바타
##령이
##해야하고
공부해서
하지말자
그이상
드립니다
배출
쓴다고
휩쓸
##때를
지금와서
개콘
늦었다
뜨거운
묻고싶다
박힌
##지니까
##하는짓
조사가
표현이
단죄
딴소리
성금
아시는
정치보복
그래봤자
##바닥에
태평양
415
하하하
##수야
##니들
여자들도
이용만
뉴스에서
똑같음
왜냐하면
걷어서
때리는
자력
##거로
##것인지
##넘는
##경제는
핵심은
34
놈들도
먼가
박혀
일이냐
##것들을
##협력
납득이
6월
동등
또또
만만한
웃음이
이자식
자수
##영이
자기도
적폐를
신경안
거세
막무가
무신
수괴
예민
##장구
##김정은
있는걸
라인
회수
##자인데
##내리고
만들어낸
구질
말하네
먹칠
비디오
잘하고있
##우니까
코스피
뺑소니
주휴
##하겠어
말씀이
내세워
1만원
you
기냥
드네요
솔로
##주려고
##하는척
사람에
안가네
95
거슬
문디
표시
##슬쩍
기사들
인신공격
바탕
많이들
나베가
지속적으로
뉴욕
분들도
한채
##되나요
##청와대
##제기
##짜증
답도
메세
묻어
원인을
##근로
이거야
상황파악
감염자가
그랬어
경유차
##다구
##미리
사과해라
머리로
몰랐다고
운운하며
물가는
잘가
##튀기
##고있음
신경도
해골찬
계급
막걸리
반증
불이
##때기
김용
나는데
벙어리
시정
판사는
##인것을
##탓을
한국보다
그만두고
물어보고
도찐개찐
먹히
애잔
이벤
진출
위선과
안철수는
페이스북
소수의
##려다가
##하든가
##그제
##는거에
피해자를
하나님을
어디갔냐
냅둬
발휘
보급
지름
통하는
대학원
일본과의
문재인대통령님
훈훈
##ow
##잇다
소리지
죄인아
속이는
찌끄
##hin
##꼰대
개최
똥고집
묻지마
뺏어
##ea
##살기
아가리를
군사독재
선처
퍼다
할아버
국민이다
짝짝짝
얼만데
재건축
5만원
뭔상관
빠뜨
한적
한선
##일인데
##되었는데
##봉사
어디있냐
사실로
사법부가
에어컨
취약
##연장
솔직하게
물건너
YG
곳으로
반은
배워야
지향
국민정
가짜뉴스라고
그것만
날짜
##주차
##보다가
받으세요
아비
얘도
이겼
모습은
주제파악
당해서
막힌다
반반
안해주
국민일보
제목이
군면제
그들에게
노통
##했을텐데
##족속
언론개혁
나락으로
조리
##시국에
##없어도
이태원
누릴
되는건
밤새
봐주고
주목
한치
반대만
개판이다
발언은
1분
국격이
없을까
일회용
재고
주관
천년
체력
해처먹
이제까지
권리가
사문서
서버
잡힌
##사구
##발의
##탓으로
인간들도
잘못해서
외양간
##류가
이게다
있었는지
다니는데
이새끼는
이길수
보좌관
김호중
나대는
만천
실력이
안내고
##고루
##모는
국민으로서
자유는
##국민의
저러는
자랑스러운
최성해
방학
저급한
탈퇴
##이거
##주권
##국대
##참사
하나를
사이코
노무현은
다행입니다
씨부려
편가르
감정을
백년
여친
줄고
##도다
##같아도
##왔냐
##끌고
##갖다
저런인간
518유공자
요구하는
갱이
유분
쟤는
##키우는
4억
지만
천하에
##꼬라지가
일본편
세금내
유전자
오세요
##간다는
##한날
필요없는
한국당을
가볍게
급하게
막은
오른다
죄질이
##회가
지키지
어른이
75
걔네
걸림
교인들
달게
순위
신선
싫어도
진입
##개정
##의원은
안보여
축하합니다
어떨지
방호
적패
커버
##수업
전화해서
시절에
소주성
배를
##줄이야
##부림
##깨진
노골적으로
압니다
##산에
##겄냐
집단감염
근거를
모아놓고
고위공직자
약을
퍼부
##열을
상식을
어려운데
주옥순
잠이나
##졌지
##밖으로
돼지새끼
무리한
39
같던데
저들
차리자
##아침에
##쳐먹을
##동을
집회에
갖추
##임ㅋㅋ
이런것들
꽃뱀
더는
##되는거지
관심없고
용서가
이슈화
어마어마한
받기
쥐닭
충견
##범으로
##빨간
##백만
##언론이
착각하고
회개
##때보다
##사정
##대화
##렸지
언제적
다르네
하다못해
부탁합니다
말씀을
oid
검사는
불신
읽는
##1도
##토리
그만하자
##는다면
않고서야
김일성이
무리들
유공자가
##코스프레
서리
이마트
있단
해제
##TN
들어가라
소리도
살아있
되는건가
방식으로
하는군
대통령한테
자유와
답답하네
야기
##께서는
불법체류
이기회에
무섭네
위험하다
돈있는
참신
합쳐
##이의
##주들
##없을
##말라
##단지
##받는게
##함의
##았구나
중지
##려요
오늘부터
##을때도
결혼해서
약속을
새겨
원하지
이윤
정녕
천문학
할수도
핵포기
##한이
댓글보면
여성부
애꿎
##맛에
인간으로
아는가
불안해서
명심해라
포토라인
가거라
마눌
쭈욱
##수나
있는한
방구석에서
밥먹듯이
A4
거둬
나같으면
답게
띄워
##복이
20억
정당하게
비난을
좀비들
소시오패스
3위
대사
못찾
보살
주장이
##아깝다
나온거
##프로는
내게
사귀
없는거야
좆국
##군사
시키자
일반적인
하는짓거리
걸리는
것이라고
도끼
입당
쟤들
테스트
##넥션
깨끗하고
진중권은
너들
수순
조문
증상이
수준도
수사도
프레임으로
목적을
우덜식
늘고
떠받
신났네
탄도
##군대
##루즈
모든것이
마이크
구하라
풀고
##안전
##릴까
끊임없이
결집
김지
나가지
되겠네요
##반응
북한이나
이중잣
무뇌아
나대지
위원장
자원봉사
백제
통역
##생기
이거냐
대마도
아내가
어딧
감성팔
거랑
용접
쟤들은
##겄지
아이큐
대표하는
도와준
문정권의
존경하는
노벨상
한건데
##보이고
##어머니
##치지말고
##든데
벌어진
낚시
다섯
성실히
연출
와도
##햇는데
##갔다가
기술을
전가
짤라라
##었죠
##물질
자유시장
가짜뉴스에
##사건이
자랑스런
양반이
남용
막으면
밥을
##어는
##좌좀
그러는거
##하려나
불편한
정의롭고
초청
통곡
##축제
있음을
##사건을
용서를
어설픈
뭉쳐서
백만원
월남
##어떤
부모님이
##것같아
까발려
자국의
##수만
##제일
##형에
##시키려는
정상화
아는척
다녀온
장례식
49
살피
##아는데
지지도
평화는
하냐고
노력하는
하니깐
백종원
부친
파시
##생에
우리나라만
##색히들
깔고
든게
예견
종편
허나
##중에서
적폐는
있을거
후손들이
기뻐
맥락
##협박
조사는
광주에
갇혀
방패
시시
##살면
##앞잡이
박근혜보다
걸까
격추
돈버
된게
방씨
부리
진화
충실
##미나
##반에
조국씨
민주당이나
##시키네
데려다
2분
문정
지명
##로워
##밥그릇
조국일가
좋아하지
학교도
##상황이
예배를
제외하고
이땅에서
사교육
애매
이뻐
##수구
##석탄
##가능한
나불대
팔아먹을
인도적
내놔라
메이
언주
##귀신
##하야
##ip
원숭이가
나간다
빼액
사자
속는
이라니
##부품
##해서라도
필요하다고
언제든
##시간이
뉴스도
짱깨가
유재수
대모
재혼
제안
처신
##왔고
##코인
국민적
사람이나
똑같냐
문베충
스파이
##한것은
##대협
##못함
누군가의
1순위
광주는
뿐이
슬쩍
잘했
##자들아
##렀다
##는데는
노답이다
놀랍지도
새꺄
##한건지
보수도
비난하고
떠오르
말이라고
뿌리는
식의
힘써
##군의
##노래
기본도
누군가는
모시
무당
##들인지
##만하지
##까짓
이런걸로
불쌍해
외노자
썩었다
암적인
##op
이야기는
계십니다
늦은
대안이
##할꼬
##는지요
되는줄
팩트가
봉준호
48
교훈
조언
짱꼴라
탓으로
##없는게
총선을
조선족이
##좋아하는
상처를
동반
됐냐
북유럽
##원짜리
얼마전에
경상
망해서
보러
오랑
원가
##개국
##세상이
시민의식
최순실은
기대를
저지르는
특수부
발암
자치
접속
##났고
들어가야
중요하지만
##불매운동
신규
항일
나왔으면
교과서
김부
중학교
때문이
아프네요
누드
빚을
고소득
애꿎은
생김
일인
제도를
화해
##줬다고
삐뚤
하찮
형태
##이리
##치던
##것인데
공동체
대재앙
막론하고
이OOO
얼마를
언론통제
선동을
권력형
신경써라
어쩔건데
미통닭
갈아엎
들린다
물이
얘가
##된건
##맞지
얼빠진
##드신
##페인
지역에
부동산투기
소년법
신라젠
인과응
긁어
녹음
##문빠
노력해서
남기
사상을
싸지르
삼성도
두배
##련다
위해선
전라도에서
모자라서
##받아야지
기준을
냄새나는
뇌물현
아픔을
가릴
따르면
불참
사료
하셔
##프다
양심없는
무너진
##정책으로
국방의
담보로
뚫린
차에
##라가
##적인데
##인배
##애액
문재인이나
다니네
윤석열을
##시대의
신사
##폭등
나쁜놈들
9억
되지만
##터지게
##살을
ㅋㅋ진짜
학교는
미쳐서
영웅이
지저분한
추정
##앉아
##길이다
##소리도
얼굴은
싫어합니다
내용도
자극적인
간판
보네요
부천
호위
##텐츠
##ㄱㅋㅋ
##엄청
있는것도
하시네
느끼게
비호감
배부른
강원
상담
쳐맞고
##전라도
##렸다는
##거리로
달창아
색히들
내팽
누워
성지
어여
이룩
잘해야
##하이
##하셔야
승진
핵보유
##서민
##하자나
가족들은
안중근
그말
재료
##es
##발정
정치도
우려먹
맞춰서
각본
##미세먼지
##니돠
##었잖아
##완전
있는건데
아닌척
서민이
보다도
##상황에서
SBS
YTN
맘껏
미제
성도
없으
없앤
이르
저절로
한짓
##인거고
변호인
공감순
본적
저급
##부의
##날에
집단으로
불과하다
나뿐
봐줄
경제발전
이래저래
전기세
아쉽다
가정을
빼먹
인맥
치뤄
##라곤
##연방
국가간
신천지교
아베에게
나참
도가
분담
업소
지켰
핵폐기
##시끼
개판이네
윤석렬이
빌빌
해상
나라팔아먹
민좆당
입대
조양
##일치
##세키
##하는거랑
이러냐
사람들이다
평화경제
인터넷에
실망이다
예수님
끝났어
넣어야
부자가
쌍용
##겠단
##람프
##빠져
국민앞에
안그러면
르노
##거도
더불어민주
문빠들아
대표로
공정과
한국인들은
나베야
갖다붙
신기하다
쉬고
##겠소
안되게
더부러
오타
창문
사건으로
이놈들아
##보이는데
종부세
말할수
문가가
밟아
있기는
잘되는
짐작
##계좌
##단속
얼마안
좌빨은
세월호를
##수준의
비교하면
저기요
단일
단절
됐다고
인내
자르
한창
##내려고
##순간에
##저라
우리공화
댓글다
조사하라
결혼하고
겉으로는
신혼
##날을
##참여
10배
거기다가
못먹
옮기
주입
우리편
보고만
좌빨의
##아닙니다
55
우회
자질
##로로
##원들이
##린다는
##투성이
##형은
소리로
어찌됐
보훈처
No
대국
망국
몰상식
이종
##와이
아이의
교활아
권영진
개털
거른다
많던데
완치
##기미
##기사에
되었는지
놀아나
노망난
양정철
법이다
앞에선
퍼붓
##힘을
댓글창
몰아내고
고치
관상
##할테니
##생도
##약이
##실로
생각한
주변에서
기생하는
테이
##을건데
사람들아
안보이
외교가
받았다고
공시지가
놈현
열라
쳐먹는
평상
##사들이
##하는듯
자한당에서
잘못됐
아베랑
##기사를
백화점
죽자
##었니
##여명
##차려라
토착왜구가
밝혀지면
갈기
버리지
빨아라
빼라
입좀
해먹고
##만드
##열이
##였는지
##희가
자국민이
가졌
않다고
웅앵
장악한
한거야
##짓는
##없구나
탄핵당
피의사실
스티브
거르는
내자식
대는
대외
삼류
접대
##론을
##꾼들
구속하고
일반화
개혁의
결혼도
사진은
비판하면
미치광
단체가
한잔
##꺼라고
##장이나
##섰다
장관에
여성을
집값을
발생한
뭐하는짓
자슥아
놀고있네
돈이면
둘로
모릅니다
저분
##지급
##이상은
사형시켜야
생긴게
냅둬라
빨아먹
생선
염치
환호
##보군
##전복
뜻이다
시녀
알겠지만
어준
옷을
##겨야
나라인가
##정부에서
사진찍
하는짓은
아쉬운
거면
과도
낙마
노브라
펙트
##구질
##왕조
거짓말은
옛날부터
가성비
골고루
날치기
닮아
들었는데
박찬
알까
책을
한번더
결과다
운동을
회사를
in
것이냐
끝도
스웨
피로
##소속
국가안보
심각성을
엄중한
##다르크
가혹
대똥
봐요
사위
삽니다
##할만한
##핑계
##탈을
##들이니
##이상이
##정책이
비싸서
손가락질
어때서
술을
왔으면
인간들이다
땅에서
명목으로
상습
짓만
##동에
##길에
##한거네
모두에게
반성도
안타깝고
여태까지
2018년
##토착왜구
갔냐
기침
석고대
아집
우찌
자해
##실수
주체사상
##학기
##손에
##하는구만
남한에
재수없다
네이
많지만
재개발
##시기를
##화법
##하고자
기자의
틀딱들아
목사님
그와중에
농단
맞어
반만
솔선수
처먹는
##바퀴
##분해
가족의
하지말라고
극단적인
52
해봤
##놓구
세금이나
##시키기
힘들어서
우습다
##더라고요
주특기
갈아치
종자들이
##반역
##시켜놓고
보여줄
나불나불
뒤를
헛짓거리
##할겁니다
##갔다고
지껄이고
sbs
대입
문과
어두
전향
침범
##리핑
##쪽팔
##ec
사람이라고
자기를
안되죠
거짓이
이래놓고
그랬지
도둑이
##바라기
내역
놀아라
뭐하노
보조
분신
활개
##비교
##왔다고
##인들에게
하야하라
죄지은
아사히
문닫고
현장에
##화학
##재는
##종양
개같이
방구
상생
한쪽으로
눈치보고
엄마는
늘어날
대남
명명
못따라
써글
주딩
##시킴
##일이나
##사와
##🖕🖕
##시절에
1일
##시당초
##덕분에
##다가는
##하겠죠
민족을
이순신장군
잘난척
늬들이
시기가
의해서
정착
총을
필요는
떵떵
신입
##방망이
##히들
니넨
있잖아요
쫓겨
##시하고
##질듯
##애는
##표는
##셨는데
지원해
맞는듯
왜이래
경악
되기를
때려라
붙이고
인명
##다간
##한테나
10프로
네이버가
꼬라지를
##잘못을
김제동이
주인공
실업급여
아지
없다는게
합당한
##ed
##함도
우리끼리
얼굴공개
##할수밖에
그럴까
밥이
역으로
집주
##알지
생각이나
어쩌다가
틀딱들은
##필요가
700
out
대수
없기
욕하던
집유
##모으
만든거
하시면
상관이
우선이다
정세균
묵묵히
빌미로
첫째
##인원
##하는사람
아니길
멍청이
교회에서
기승전
선호
있단다
자사고
##배기
그런소리
자살골
통합당이
무인
틀리
혀를
##냄새가
뜻은
당신네
15년
웃김
##적이라고
##체계
##여대
##급식
##온나
받으며
숨길
##사다
하루아침에
##던가요
##내는구나
##것같아요
강효
변절
부유
패망
피우
##비자
무능하다
인정을
힘들면
비판하고
비슷하게
징그럽다
오라고
전멸
##박스
아니까
무식하게
그럴거면
받았는데
그입
너와
니들을
인지도
하든가
##등의
##됬다
##머리를
진핑이
42
못구
미칠
##인들의
##청소
아니구
무슨짓을
말해봐라
민원
않으면서
저여자
절실
촉구
##쳐넣
위선자들
경험해
##터지고
##던말던
##놈이다
##하여야
통일은
이겨내
결정을
적도
증세
패션
향한
##허다
이제껏
개소리는
부족해서
샤오
언니
착하게
##놨는데
##해야겠다
바둑이
뭔짓을
쥐뿔
치우고
##니스
리얼돌
3배
ㅇㅋ
멤버
쌩쑈
저쩌고
중궈
차도
한순간
##기엔
##점도
##똑바로
##대가리는
못살게
선의의
##사구팽
감축
고무
구혜
조오
##절에
##자루
##하리라
##공급
##여자들
중국유학생
##이라던데
이해하고
한국당에
15억
남이하면
CC
덤비
흘려
##리본
##서트
##플루
기업과
##상황을
시댁
영역
오지마
저기에
##길만
시간은
받았으면
의료진이
기강
딴따라
매너
반기
보라고
절단
지발
##가즈아
##같네요
##르장
##구민
##였다는
##밍아웃
권력과
아무데나
800
수장이
##하느냐
##본다고
살인범
의사들
기저
외계
##체로
##한다면서
##대표님
##거를
살기좋은
특별한
수없이
자란
전후
화풀이
##게시
코로나도
노래방
진상규명
글에
뽑아라
문재인이는
탄핵에
없어진
시작도
파헤쳐
5시간
구하기
급한
심장
태클
##못해서
트럼프의
##되었고
고의로
득표
추운
##나하고
없애자
바꾸는
역겹네
뭔죄
법원에서
병이
신빙
흑자
##읽고
##는거니
자녀들
박아
절로
학종
##살에
일베가
만천하에
드네
문젠
복직
사대강
재선
좌천
##시니
잘못이다
해외에
한국인들이
따위가
모가
미만
짝사랑
친하게
환자들
##DP
##았다는
있었다고
살인죄
국개들
5일
납부
당한다
맡기
봉급
치안
한시간
##이념
##신아
##눈엔
아니여
문제인지
피해자들
물어보
모지리들
잡지
평창
##벌고
##이었어
명예를
스웨덴
단두
죄도
터졌
##상종
##랄까
하시오
무너지는
누른
말들이
하이에
##배치
##올리
자자
##지능
##열심히
조국한테
달창이
외교적
형사처벌
안했다고
얻는
지꺼
활짝
##예배
수준인데
아가리에
어째서
lg
그짓
그후
눈알
시장을
안낳
우좀
저가
행위는
##반일
##해야만
나경원도
거르
이보다
이기고
죽도록
토사구팽
##걸려서
역사왜곡
##안되고
##장기
##번이나
##채용
##하나는
시위를
일어나지
명칭
반정부
품위
##형님
선거로
가족과
없었고
한선교
kt
구차
대동
동작
장면
##산은
하루도
강남좌파
신경쓰지
어릴때
먹이
무방
잃어버린
젠장
##이네ㅋㅋ
사회적으로
공산당은
아프면
##이유는
성과급
우물안
거역
된거지
플레이
##보장
사퇴하세요
199
귀엽
넘었다
눈앞에
미달
일안하고
터진다
##할매
##니티
##TO
##대통령을
홍준표는
목소리가
7년
도주
애시당초
입이라고
##딸은
##갔나
한심스럽다
박원순이
마감
빚이
정무
찾을
##하느
##팔아서
##❤❤
바라보고
취급하는
트라우마
달라는
##매일
대깨문아
삼성전자
저러다
생긴다
될수도
말구
주자
총체
북한에게
받아먹
지랄발광
악마가
보도를
김대중이
이슈가
##질않나
법관
보신
비틀
##퀴들
권력욕
대책없이
예전엔
강간당
현기차
강압
같다는
구형
줄여야
##세우고
국회의원들이
있었지만
주둥아
드리
못봐주
배짱
삼가고
##것들도
저러면
이놈들은
그릇이
연쇄
##오리
##게도
##강화
뉴스로
소비자가
유튜브에
저래라
유흥업소
90년대
경협
너두
별짓을
이랑
##회복
문재인이랑
모두를
위험에
배현진
너때문에
##함으로
조국사퇴
않는다고
##지지자
한일전
유병언
솔선수범
고가
고난
흐지
##5천
##랭이
진보를
이익만
상태로
많어
일처리
##불이
아니라도
정신적으로
##시키냐
청년들이
건국
논쟁
보기에
이행
저격
##한단다
##기억
##am
##불고
조선아
하시네요
힘내시고
지네가
부메랑
점유
허세
##버스터
7월
내통
첨단
퇴보
##더나
이미지가
분열을
##하셨어요
최근에
선진국이
금리
높게
일시
차리지
흑우
빨갱이들의
스스로를
대부분은
지방선거
뛰어난
제자리
##개도
##할거냐
문제네
한심하기
웃기지도
불순
여대
추하게
##보냈
##중한
##변호
##침략
##온거
이상으로
정신차리자
정신병원에
40년
사기꾼들
두고봐라
머하냐
지금쯤
공산독재
왜구들
2달
귀여
독도를
하겠습니다
##수없다
##문은
치매가
관세
넣어서
손목
악한
##어찌
##비싸
미국가서
##거지로
내정간섭
is
##방향
##맞게
##았을
이상한거
얘기만
##지역에
러시아가
똥꾸
말해봐
몹쓸
발작
이긴다
##태는
##짜고
##🤬🤬
안되겠다
100배
드루킹이
극단적
색깔론
구체적으로
탈락
##메이
##소유
##직이
뽀록
이개
인하
허무
##마당에
##볶이
하는거고
안속는다
구질구질
당에
못가고
외에
##준화
##포먼
세계최
기자도
그럴수도
미안해
찬성하는
헌법에
평등하게
폐지해라
시청료
열받네
똘똘뭉
가담
야구
기사냐
범죄집단
틀딱이
뽑아놓고
현정부는
당하고도
언젠간
정직하게
살포
식물
열받아
해대고
##아주고
##부다
##줬더니
탄핵하고
대구를
반성을
##기생충
니그
뜬구름
속터
전력
황당한
##시대로
##될텐데
##얼마
미국에게
어디냐
어디든
난리도
처음본다
몰아내야
돈벌고
보고싶은
공중파
낫네
바이
혐의가
되는것
이럴거면
진지하게
본색을
시대는
위증
항명
##사형
토착왜구는
등신들아
나같은
따지는
얘네들
의뢰
총칼
##불법
##정신병
교수는
살고있는
잘살고
부분은
보험료
##자동차
승객
참에
##났지
##깡패
##라고요
싱가폴
이눔
정식
##받는데
넘어간
밝혀질
##세력의
사장님
될까요
알아요
폴더
##고한
정상으로
김돼지
할망
불매운동은
##결과가
글은
둘은
명재
모냐
염려
포털
##만하네
시작하면
지나친
웃긴건
##유치원
단정
왈왈
##미화
##과도
##무장
##눈에는
##푼이
없는가
들어간다
세월이
그린
금수
싸잡아
이끄
장사가
##부패
##하는거보면
사태에
안나올
보여주네
되네요
##위협
##꼴을
##단의
시민들은
않는다는
월급도
##하려다
##부모가
밝히는
죽이려고
21세기에
개보다
쉬는
우기고
탈당
걱정입니다
규제를
##짓거리를
기적
기피
대명
메달
온몸
철없는
컨셉
##해볼
##부수
우리사회
중국에는
필요해
전쟁은
음란
##할거야
##받으면서
##워도
##됩니까
관계자
조차도
맞는거지
밑으로
없겠지만
잘하
##사는게
##매고
##폐쇄
이름은
어쩔수없이
개이버
결제
먼데
사단이
신변
우연
##ap
##ㅌㅌ
이런사람이
말이되나
사기치는
뜯고
호흡
##말자
안전하게
늘어놓
##기관이
치졸한
백색
업고
##전용
경찰의
보내지
네이버에서
물어보면
꼬붕
##결정
##뭔데
##시키야
합법화
##매장
##밑에서
##맥주
사람인지
너같이
당해야
똥이나
빠지고
화폐
##가라고
##경협
##해주길
너도나도
사태로
어이가없네
일으키고
믿으라고
자질이
카르텔
##권자
친일청산
폐지하고
유리하게
살길이다
로비
질러
##지시
##하락
##애들도
문재인보다
12월
생각좀하고
건전한
논평
승리는
요런
존엄
종신
커넥션
특성
##각한
##붙어
보수라고
무식해서
공부는
모습에
##세력들이
분배
빠지면
저자
즐기는
##기소
##긋다
##익이
대우를
여적죄로
실정
실효
중대한
참을
##긴다고
하는것은
해결해라
무너질
성장률
어떠냐
근로자
거기가
할복
##둘러
아이들의
탄핵하자
##겠냐고
안보이나
직장인
한남들
냄비근성
나보다
도장
욕나오네
풀려
##돈도
##대던
기사의
거품물고
내렸
배척
잊은
천지네
##카락
##나가면
##유린
받을수
죽여놓고
시스템이
당사자
가산
일말의
##당이나
##아들이
##기본
##강한
##좋은데
경제와
정권잡고
##소리야
아무생각
다니며
반일운동
자살을
승차거부
낱낱이
민초
빨치산
영상을
오거
창의
퍽이나
생각하세요
##이나마
어지간
포인트
##당선
그래봐야
기업들은
개인적
저지랄
미쳤냐
윤미향은
악플다는
198
##안가
##올리는
##중입니다
어린아이
병원비
영향이
나중엔
오마이뉴스
안본다
정화
##주지말고
##당한다
##권력이
얘기하면
집단은
남한을
당당하면
핵무장
가중처벌
가려고
누워서
변함
부양
심보
잡종
##뭐야
일본놈들이
소리다
정상적
지역은
모르겠음
개의
되지않
술취
엿먹
오호
##수들
##떠나
문재인탄핵
OOO가
##하나도
그만하세요
보유국
안남았다
모자랄판에
보이니
안산
온나라가
이세상
장소
창업
탁월
##생은
##특혜
##옆에
구속이
##지말아라
제목을
고집불통
현금으로
자력갱
넓은
해가
##으란
##임에도
##직업
##빕니다
##자식들
무역전쟁
비서실장
빠가
주동
##살짜리
##덩어
##석도
조작의
통합당은
싸움을
실질적으로
말처럼
문간첩
사지로
##재로
##마귀
##내도
그렇치
사기친
얼굴만
사진이
8월
김구
던지고
땜시
보상을
쓰렉
알라
##늠들
조선인
권력으로
미세먼지로
심판해야
버르장
빵빵
안재
좃국이
팬티
하차
##다보면
##et
##ED
저런것들은
잘못했다
3년동안
마찬가지로
윤총경
어버버
발을
산으로
수탈
죽이지
찍어주
한해
##학력
##건너
##줘야한다
세금걷
자유당은
멍청하고
영화를
일으키는
직무유기
감이
닥치
돼서
소금
욕이나
있겠네
##때리고
##애국
##운다
##단은
##내는데
##다가도
무시한
종북주사파
분리수
내주변
받는거
속히
실실
외쳤
좌파들아
너희도
애국보수
장갑
##민다
##말까
##뿐인데
##쉽게
선동이
일어나서
##하지말자
오만방
통진당
거짓말도
장사하는
비정상적인
나가리
메인에
실리
잡히
##빨이
공익제
가보
대사관
요번
타격을
호로
##방은
##시청
주변국
몇명이나
아까워
노리는
쏘고
좋으
찬다
##대는거
##남이
무섭긴
충분한
못봤
분산
싸워라
점수
##오를
조작해서
집안에
도망갈
얼렁
##당장
##받이
##근처
생각이란걸
외교도
편향된
소모
쓰기
사실에
얘기하고
공개하면
생명과
추가로
계층
국밥
당파
무전
최전
##갈기
가관이네
가면서
기차
남양
로맨
연세대
울부
이쪽
조절
##10년
공수처설치
이재정
허접한
난장
##개선
안보이는
기회다
되었습니다
알려주세요
얘네들은
그따위로
대문
만이
사도
이도
##준다는
도덕적으로
반문
불출마
선장
손이
타격이
##준게
유유상종
44
개들
공과
김명
동무
총으로
횡단
##마인드
아니었으면
아프고
목적은
사무실
덮어씌
다닌다
냅두
없지요
##있지만
##놈들의
##썩은
##주의가
##어야죠
총선까지
늘어난
묶어
보다가
일하기
좀먹는
참견
##세무
##단위로
##내어
짱깨는
답답하고
##한것처럼
그나라
문가는
분쟁
월드
청주
패닉
해달라
##열고
필요함
20만
여행을
무너지면
상태가
시키는대로
굳건
성차별
수억
줄은
##놈들을
##높은
같은게
대해서도
정은이는
4차산업
가지도
각각
당의
##집도
##데모
##부에서
##드라마
##nd
사회는
나온다고
##세력은
가고싶
것들도
까먹
노리고
만났
보육
전사
##오세요
##유죄
어디에도
수사방해
사라지는
나누어
시끼
좋네요
증권
측은
크루즈
클린
##리야
##의견
##크리트
##눈깔
자유당이
의원은
공감이
퍼트리고
난독증
전무
##생기고
이딴거
명백히
동조하는
47
과정에서
맞이
인줄
조옷
##ig
##상이다
치료를
발언이
1주택
개한당
설계
티가
##상위
치료제
몰려와서
안믿는다
유언비어
개들이
뛰어나
별의
세컨
심하네
안바
적국
전주
폭력을
흉기
##밀고
경제의
거짓말만
간첩들
누군가가
힘들어도
어른들
현대판
그자리에서
헛발질
당당한
돌려서
뭣이
싶다고
압류
20만원
대단히
##세력을
바뀌지
해주지
안달난
괜한
니뽄
이토록
##었다가
쓰레기통
세월호로
일베충들
순실이가
가져야
넘으면
매진
소문이
없을텐데
옵션
##ㅅㅂ
중국하고
바보같은
mid
명을
실직
쑈를
쓰던
영부
한국산
구속영장
넘어가지
기대된다
##따위가
대북제재
길거리에서
동족
있노
쥐도
쫒겨
인정해
기도합니다
탈출은
꼴리는대로
니돈으로
수감
증거다
##설이
##됐고
사람으로서
장악하고
화장품
같으니라고
떨거지들
몽둥이로
희한한
to
국격을
배포
씨가
알리
커뮤
퍼포먼
##사업자
##인가보다
김정은한테
반일을
추미애는
한반도에
##증명서
CCTV
뒷감
망하지
미스터
일해라
##거니까
##내면서
##걸어
##잔어
2016년
다까끼
불화수소
개떼
비비
오진다
피고
니들한테
사람들과
있었을
알았더니
문대통령은
고개를
극히
됐으면
이로
자네
전철
##대해서
##남은
##ki
지지한다고
보여줍시다
강력처벌
싹쓸이
댓통
악마다
##면으로
##겨도
보수언론
지켜주
아줌마들
중도층
어쨋든
강기
김태
내신
내는데
수를
##휴가
좌좀들은
5분
승리가
전관
강사
막을수
손모가지
주니
허탈
##이득
##지검
##사카
##건을
##내리
##돌림
##나라다
댓글이나
##하는거죠
트럼프한테
내로남불이
사형을
공격하는
보낸다
연평해
담마진
베충
학벌
##보듯
피해보상
10분
몰두
밥이나
안망
일하면
입닫고
차분
##생아
##타서
알고싶다
의혹만
감정에
이지경까지
유분수지
멀지
욕해
##더군
##주의로
안타깝네
##할거고
실제로는
일어나고
모양인데
구제불능
119
낙제
되겠나
심신
쳐라
한순간에
이상도
여성들이
시끄러
성범죄자
끄덕
피아
##주의에
OOO은
자기들끼리
이분법
노친네
얼어죽을
흐지부지
끄집어
송중
여실히
있군
절친
지갑
##네ㅋㅋㅋ
##민의
##전체
그런거야
기자들은
어리버리
2만
그들도
작정하고
재능
횡포
##중이고
안보가
황교안을
위협하는
허구한날
은근슬쩍
나아지
미혼
악취
야만
죗값
채우고
핍박
##정리
##로를
##려야지
##였지만
##불로
다음으로
공산주의로
자빠졌다
민노총은
재인이가
겠다
당했다
않겠지
트롯
##주머니
##수증
인정한
본인들은
##해주니
독립유공자
올랐다
압도적으로
녹취록
고교
내시
도착
막기
있으신
##까도
##하는거보니
공무원들은
##정책은
인민군
과정은
내리면
뿌리를
옷벗
한꺼
##부동산
##비행
그러려니
조작된
감옥으로
대응이
GDP
기고만
뭔지는
안듣고
역차별
왈가
근거도
극치를
등은
발행
소고기
아구
일이고
저모양
##외과
##질서
##따박
어떻고
판단은
알았어
백원우
맞짱
바래요
위주로
##사이에
##될것
세금폭탄
##아니네
처벌하고
UN
모자를
부글
할건데
휘발
##처먹은
머리속
준비하고
받는다고
추종자들
잔인하게
차지하고
실질적인
남아도
북의
양현
자나
피는
##다니다
##을게
##충들이
##내야지
##쓰는거
기사내용
아바타
정청
쩔쩔
풀어서
##파서
##친북
##하는것들
##대로라면
수사해야
소름끼친다
서리풀
겁나게
유난
일이라고
##시대가
##만보고
건강을
시청률
공식적으로
가지마라
남지
내라고
두손
참사
##조카
##내세요
너희들도
공부도
집구석에서
##부정선거
따박
##세상에
##부동
##오늘
##죽을
아니어도
검찰총장이
무섭네요
맡기고
부당한
잘보
##가만
##수용
##진압
##악마
##잘하고
##팩트
##시키는데
선동과
처음에는
집에만
길거리에
##비에스
살만한
없에
요기
##말이야
##많아서
##답답
되었나
생기지
해체하고
##라스틱
석고대죄
공뭔
두면
##적자
머리카락
촛불시위
물론이고
국민혈세로
##마누라
높고
상정
흔한
##는소리
##테이
##13
##치우
많은거
떨어지니
학교가
않는다면
명령이다
일제강점기
더해
쑤셔
##까라
##기념
보는구나
버티는
특권층
놀면서
뒤지게
드런
웃으면서
푼돈
##로그
##하가
하나에
OOO들은
바보들아
##하는것들은
마지막으로
IT
위정
적합
##되면서
우리들
생각됩니다
사실대로
일당들
내세우
6년
씌워
##하늘
##이라구
아버지는
한푼도
다문화
문산
했을때
##쳐놓고
##려놓고
##ad
고생한다
명단을
98
개지
리스크
전대통령
특허
만들려는
##다니냐
독재는
대변하는
똑똑하고
무소불위
구태
뭐하니
접어
##자이
##내지말고
##놈이네
틀딱아
##학생들
##관광객
G20
no
가소
가는지
그라
똥구녕
마사오
부장
싶나
짜빠
최대의
코드
화려
##회는
인간들을
치료도
성접대
넘을
농업
밀어버
상도
##세대가
##되든
##달에
##협상
##직은
##고있지
시간도
##국가를
##정신이
머슴
별반
보인
진절
질린다
##유발
탄핵해야
인간이길
학생들을
집권하면
통계청
세뇌된
오랫동안
아들을
전적으로
천사
##단식
##릴듯
얘기해라
갖춰
놈들을
도그
미틴
취미
##내는게
##낸다고
아니구만
한국기업
이유없이
다음에는
어찌보면
자동으로
시절이
가관이
것이라
두눈
믿기
방금
복무
확장
sec
같어
날도
대세
위헌
좌편향
해봤자
힘도
##사례
##수첩
##웠는데
ㅋㅋ이
올해는
몇십년
5촌
날강도
남기고
색희
이대
푸틴
##라더니
##이즈
##인이다
##나해라
##괴뢰
보수들
공통점
그녀
중계
초록
##감각
##대소
##내야한다
##영업
##책이
##율은
친일파들
거리고
건다
되돌
빠질
선봉
않는게
어림
하거라
##통신
##잃은
박근혜와
필요한데
아베도
해결해
부정적인
##해보인다
노트북
공기청정기
간거
도피
음해
##줍니다
양도세
두루킹
발동
##식당
##권으로
##범은
대통령이라니
집권당
아줌마가
자위당
90프로
다수가
더했지
땡큐
##종을
##받음
##용품
누구랑
시간문제
그럴수록
고향이
미운
왜그래
##한자
##계에서
##언정
##하누
##티브
##받기
##페이지
대통령님이
진보라는
##나오냐
지껄여
빠져나갈
만나는
먹튀
한둘이
##외에
##연하게
나서는
마인드가
망쳐놓고
이벤트
라디오
싸워야
한줌
##줄을
##잘해
##oon
탄핵으로
따로없네
담배피
4명
의구
했나요
##분양
##혼란
여자한테
독립투사
15일
영향력
독박
말까
안볼
한탄
훔쳐
##질의
정치검사
##수있나
미세먼지에
갈등을
넘길
수영
안그럼
##선으로
##회로
아니지요
생각해보세요
##이라지만
경제학
팩트만
후보로
이득이
하이에나
말했
##으리
##전술
있다는거
2020
시민의
깜빵에
말길
배째
실수를
알리고
이부
##as
##소굴
##왔나
##득실
##갔지
내려서
학생들에게
찾아볼
방역에
저질러도
끊고
내놓은
넘는데
몸소
와중에도
##애를
보수정권
독립을
##ang
뱉어
일년에
휴지
##의심
##자제
##락치
##후보자
하지요
한일관계
물건을
몇년전
풍년이다
구더기
싹싹
엊그제
총질
후련
##수기
##족들
무식이
멍청해서
사법고시
공표
눈높
원정
커밍아웃
##대문
국민성이
지지할
박근혜의
기업도
있을것
광주에서
빨갱이다
할배들
안맞는
자작극
두분
전방
지우
##천억
##물림
##글이
당연한거지
국회의원들은
되는가
될걸
변해
소명
중졸
탁상
##리네요
##하디
##있니
##교활
정치의
없는것들이
##되는구나
대단합니다
조용한
그럴싸
조심하세요
통계조작
맞춤법
강대
생일
안받아
터무니
##터진당
##세이
##관도
머리도
##생각으로
바이러스는
오래된
상대적으로
권한을
골치
먹는거
부각
퍼져
##웨이
존재가
동일한
60년
가상
감투
달면
라며
바리
외에는
이력
총사퇴
한몸
##위도
##았는지
##팍한
##정도의
기억안
부르면
##그만하고
집구석에
쳐박혀
교사가
만화
머라고
쪽쪽
##한단
한다는데
올라가는
비리와
희생양
행태가
##문서답
삽살개
머지않아
억대
인프라
죽었다고
##털고
정치로
##인거죠
위선적인
##논리로
동사무소
며느리
누르
실적
화나
##해야되
정권유지
아이도
여러분들
지나치게
국개의원들
윤총장이
그니깐
동상
송혜
수혜
우라
치러
##서나
##중계
##죽고
환경부
활동을
바닥을
유전무죄
극악
눈엔
쌍팔
유교
출소
##세의
##리는지
야당의
비리로
저러지
부탁한다
11시간
군인권
꼬락서니
그곳
달지
주시길
진성
쳐묵
##애기
북한이냐
없는건가
기대해
동맹이
돌아다니는
김재규
바른미래당
개작
왜그리
판검사
했었는데
##라기
##어지고
나오니까
부족하다
대형마트
개새
대대로
망가지
복구
한중
##놓으니
아니요
지나고
축하드립니다
##시켰다
자료를
대갈빡
5배
놈이나
뿐이고
사격
없단다
정정당
##🇯🇵
상황이다
간첩들이
똑같지
이상황에
버렸다
부가
잘났다고
##인건지
##역적
##임대
##박탈
##란드
##살지
##힘들어
우리모두
당신이나
하늘에
사태는
무너져
유치한
꼴좋다
놀랐
아에
임상
좋으니
##매는
##극혐
##글을
사람이고
독재자의
마찬가지고
임금이
##🇰🇷🇰🇷
고대로
무거운
바치고
즐거
##바보
그러네
특검으로
외면하고
한꺼번에
두산
손녀
임종
##한건가
##러지
##어느
##두렁
##청년
##놈이나
경제지
친일파들이
##하지않나
손해를
전기차
넘아
들쑤
떠난
저리가
##이이
##여기
##먼지
있다는데
코로나때문에
##빨갱이들
##지도않고
모집
악을
통탄
##었을텐데
##잔데
시스템을
끄나
모텔
못하니까
오물
활보
처벌하라
알았으면
공소장
명의
모질
얼릉
중인데
##불만
모르겠냐
##들어가서
싫어한다
박그네가
제품을
방호복
국보
나에게
년들
눈꼽
밑밥
새롭게
속여
아군
욕해도
휘청
##자라는
##딱지
생각하는지
##말고는
나오겠네
가짜뉴스는
너네도
마셔
만명
모함
잘했네
통보
편이
홍남
##으시길
##스컴
##류의
대통령이나
##해야할듯
경제전쟁
보이는게
빨아주는
포함해서
몇배
반민족
쇼쇼
애들만
정해진
##인가봐
수사하면
시장은
바람직
포함한
특징이
삼가고인의
같애
때리면
콘크리트
##당해도
##크게
독재의
유능한
고성
나야
먹기
모병
브리핑
비용이
이철
호박
##보이네
일자리도
여당과
받을것이다
무소불위의
국세청
문은
싸워서
추앙
##파고
##통화
##있네요
##신지
##놨다
##판에서
촛불들
왜구당
명분을
과실
듯한
쓴거
제정
##사하고
##무너
##렸고
##붕괴
##칩니다
자기돈
이유다
무섭지
그랬으면
우체국
쓰니
##착취
##싫은
##낀데
국민여론
창피한
##해줄께
그분들
온국민
##적용
되는걸
하루만에
개판이
구라를
수입이
똘마니들
군복무
건들지
마루
무릅
보기도
살려라
잘생각
질문에
##진데
##하에서
##전형
##포장
##앗다
##거리를
##져야한다
국제법
가증스럽다
아파서
신천지만
두가지
땅이
즐기고
##가는지
##프게
##덜은
##었구만
##소설
##님아
##쓰지말고
생각해야지
만들어준
답답합니다
쩝쩝아
무법천지
발톱
아는지
우왕
죄로
##적임
##선고
##오른
아니든
누구처럼
여자랑
불쌍하고
희생을
나쁘지
세치혀
명성
살았으면
대통령까지
정치와
18유공자
대책없는
##범죄자
잘못된거
전문가들이
원하는대로
손석희가
티비에
##총선에서
못해요
부서
##만장
##14
해야하는거
인정할
재판을
이사장
##거짓말
개OOO
레기
말세다
맞긴
버리면
쳐죽일
판새
##줄래
##코드
하는데도
궁금한게
518은
가이드
대만은
봤지
이른
일해
##충들아
방송사
결과적으로
박원숭이
동북아
오락가락
번지르
케어
대한민국도
가격도
여당의
것이니
당일
엿같은
##거주
##자산
##통해
##22
자기들의
그리스
전문가가
할머니를
더런
초과
##가구
##조센
##조용
친일은
수십년간
아동학대
고시
이뇬
입국자
가만있
이딴게
##레이드
세력들
이랬다
보완
생물
없니
외칠
요란
##군인
하나다
부끄럽고
간단한
보려고
안합니다
이라면
입마
정우
품절
##시스
##간게
##기면서
##열어
자한당이나
이용당
사랑해요
3년간
음식점
기아
시신
어플
지혼자
집한채
##하겟
보고서
##부끄럽
견주
깔깔
성전환
온다고
이새키
전반
지멋대로
진천
편입
헤아
##트리
##그려
선동은
100퍼
30만원
돈의
신격
흘리고
이번정권
지원하는
##사건도
법치국가
두명
모은
성태
안쓴다
잣대를
##저도
조금은
##집단들
충분하다
단어는
나섰
메크로
어긴
##실망
##한다더니
있는줄
문재앙이는
선동당한
독재로
되었고
세력들이
않겠냐
쩔어
쳐먹은
##설수
##얻어
한국전쟁
멍청하게
정신병자들이
반응이
미사일이
내집
유세
육군
저놈은
키트
파멸
합의를
해보지
현정권이
##있구나
##전체가
누구하나
##했다며
##것이며
찾아봐라
나올때
생긴것도
거리면서
동문서답
없던데
인형
차마
##조각
##었어도
##차원
정신으로
##어서는
세금내고
좌파를
종교에
말기
빈다
쳐서
험한
##문의
##속을
##어야할
지역이
종교인
민족이
8억
아나보네
정해
징하다
퍼나
##되어도
##회피
##증가
조국만
##같은것들
노노
달아라
돌았나
명시
역행
오게
일좀해라
짭새
화면
##한잔
##하였다
##무효
##😁😁
##정부야
조사해봐라
우한에
자랑질
염병하네
다이어
고개숙
70년대
거참
경주
시점에서
##은퇴
##발에
##날까
##릭터
##한거라고
이번정부
있나보네
밝혀지
주식시장
빌어먹을
배만
있거든
시민을
그럴듯
미치지
가증스런
더러븐
설문조사
김연철
내비
만행을
몇명이
못보는
배때
상판
원합니다
##병은
무슨말
경제공동체
##것이니
지랄이야
친일파는
##나오지
학교를
바뀌는
안나오네
##지못해
좌표찍
끝난다
돈받
아는거
일대
잘되면
헤쳐
##임에
##에게서
감염이
이지경이
힘들어요
객관적인
37
한패
##전에는
##총장을
심판하자
무력화
가지면
지분
##민들은
##죽이는
거짓말하고
30억
##인간아
사회주의를
보니깐
김치녀
뇌종양
돌봄
주지마라
초월
판문
생각해야
##그렇지
꿀꿀
떠나고
아르
##위치
##걸리면
생각하는거
않았고
인사를
수십조
십년
아오지
주려고
처맞
협정
##가림
##개학
나오기
부동산은
이기적이고
쪽팔리게
모양이지
디젤
밥값
적나라
파워
##장수
##il
돌아이
조작이라고
진보좌파
신경쓸
25전쟁
##그러냐
개웃기네
돈받아
반듯이
별것도
시방
이때까지
중이다
##인력
##오나
##소리하고
##인간들은
가까워
남들은
냉철
딱딱
참말로
태도가
표만
##다행
##당이다
##실까
건강이
군부독재
노력이
닫아라
소외
유대
##우나
프레임에
자력갱생
구시대
다망
대께
밝힐
부딪
살겠다고
스파
##지식
##드리는
방송이
올라가고
보는것
논리에
질문을
오만한
##정당이
##으면서도
##할수없는
불공평
##없애고
순공감순
기고만장
못할까
문똥
##가들
##나이에
##소식
##드세요
##증을
##놀음
##석에
저런말
필요하면
18은
부역자
웅동
현정권의
##의한
##기피
##잇네
한국말
한다며
박근혜랑
반대가
수요가
무분별
전투기
우리와
##주의를
있었다는
장기적으로
계획이
고만해라
##인민공화국
##ung
방귀
##사격
##창호
##넘어가
##철회
가능하다고
적당히해라
도요타
kf
우글
##밀리
##회에서
생각이다
박근혜정부
자식들도
이용하여
지원해주
광화문광
잘살게
트집잡
82
가야한다
무차별
탱크
##였군
##근데
지지한
46
되찾
먹게
받냐
배은
삼척
저놈들
치열
##테크
##학살
##부자
##모씨
##대사관
##쯤은
제일먼저
최순실보다
대선에서
검색어
퇴직금
지잡대
용어
진다
시작이네
문죄인을
##먹을려고
who
가정이
도리
모시는
발라
빈곤
지자식
했니
##통일을
##업에
##소리만
##고싶냐
바꾸자
없었음
알릴레오
계기가
매력
부른다
숨은
적법
##비난
##단절
중국만
없는건
반대합니다
보나마나
되풀이
무임
탓만
##줄려고
많은가
전화를
강간범
로맨스
XX
안산다
##여부
##처가
서울역
시장에서
나올듯
남북경협
짜파구리나
늦지
바껴
반하는
자들의
죄국
허울
##건도
##름이
중국보다
없는건지
여자만
눈치나
나니
낙동강
무자
반찬
주적이
짜르고
타인의
##추방
지나도
##레이크
괴롭히고
웃음만
두렵다
국토부
밝힌
역전
왕이
왜하냐
울화
작정을
##거여
##밀어
##더리
##지않았다
자신도
만드는구나
안찍는다
은근히
장교
찍지
##주신
##업무
##순환
아니었다
신천지에서
지켜볼
어렵다고
씨부리고
##원숭이
6억
못지
##나니까
##통은
##전까지
##존엄
입국금지를
##것같네요
미용
살려야
적당한
죽이면
지나서
##수성
##35
대한민국이다
조작은
##하기까지
없어지는
적폐라고
따라가
2년간
전국민을
감방에서
아웃이다
최신순
받음
인사가
져라
해마다
##시는지
##안된
##죽인
조국수사
그런것
건강하게
##집회는
너야말로
덤벼
번도
오프
운용
인생에
논리라면
전국의
이념에
##할수있다
올랐는데
다냐
돈많이
이병
##아네
##사법
##구현
##써도
이상을
공정을
하기전에
법무장관이
객관적
몇개월
본래
폄훼
##야합니다
나라걱정
일본인들이
해결이
정보가
늘어나는
간주
같으니까
다아는
레깅
서방
대통령부터
그런다
무슨일이
마음껏
공무원연금
##사실을
시끄럽
갔네
사내
세일
아가야
인심
종일
##추적
##릴때
##함ㅋㅋ
일본꺼
##하자마자
여성은
한심한것들
한마디에
자격없다
뭔소리야
일등공신
되어도
세번
있지도
축내는
한경
호화
홀로
##라쓰
##속의
##라이트
기레기들은
있을거다
모습이다
아들딸
올랐다고
늙은이들
겉과
궁리
엄정
주인은
충돌
한들
##보죠
##지나면
##포르
합법적으로
치밀어
시원찮을
부지런
개별
논두렁
동성
베충이
빡빡
서영
##였으니
##합격
##광주
한다니
##들에게도
임명하고
페미들
오래다
청문회때
바닥에
사례가
가축
건축
관리를
꼬리자
닮은
막히
일들을
##생기면
##로우
##석방
범죄에
지역사회
빠져나가
노래를
내란선동
슈퍼전파
정신상태가
났네
묵인
병자
의도는
전제
팔아라
패턴
##됐으면
민주당아
사실이고
피해보
##고있습니다
시작했다
오늘의
ㅈㄹ을
남한의
글러
마을
안드로
카악
##이웃
##빠이
잘못이냐
아니고서야
##수준이다
기상청
능가
많더라
몰이
준다는
혹세무
잘못도
필요없
관련이
사기꾼이
전국민에게
주휴수당
WTO
거에요
니자식
드뎌
망명
못보고
왔다고
죽었으면
##했나보네
##하심
##마사오
##폐하
##끼들이
말이되는
있냐고
기부를
그랬는데
민심이다
충성하는
것들이다
계세요
기네
명언
##거라는
##이기도
##한것들
##바기
##다니깐
경찰관
##운동을
혜택이
전문가들
민생법안
공조
조그만
주류
해병
##집으로
유시민씨
##지지자들
찾아가
##재앙이
이용해먹
절반이
채널A
돈내고
망정
약소
종결
##백백
소리에
결혼하면
이중적인
미안하지만
구린게
다스려야
근간을
나뉘
대치
발부
서글
왜사냐
제국주의
표로
희안한
##이길
정신나
##할때마다
빨갱아
넘친다
노총
늙으면
뽑자
완화
의식이
##을꺼
##어렵
##냐ㅋㅋ
##많음
##백만원
##이상실
사회주의가
판사도
진단서
저렴한
갈수
강탈
논점
목격
성숙
##데도
##인식
##년들은
##하게도
하나투어
그때가
없애는
하늘의
준비를
부추기고
겁먹은
모니
생리
실감
이놈이
잘지
##트리고
##쓴다고
##소리하네
없어진다
전두환은
가르치는
전염병이
14일
기막
방구야
쓰는지
없거든
외환
전까지
주주
##반이
현실적인
50억
노무현대통령
사망한
절반은
어떨까요
정청래
군산
급증
적이다
조동
##미만
##지만도
그러는지
언론장악
##하나로
필리버스터
대역
대하는
맘충들
자식한테
시민아
올라오
매국노가
뻥튀기
살려면
지위
출장
정상이지
평화의
불매운동을
일관성
초반에
죽어가는데
##이는게
##렸으니
세금내는
##있는건
보수라는
100만명
미쳤어
민주화를
미개하다
시끄러운
여태껏
5만
고종
던지
비가
씻고
이노무
점검
##안다고
##쳤는데
나라입니다
돌아댕
기술력
새삼스럽게
은혜를
대란
방식이
사업자
솜방망이
이늠
##대행
##대더니
##소재
기사에서
자기나라
도와달라고
쉴드치
예산을
당사자가
우리민족끼리
갈때
꽁짜
남여
많을텐데
없는거다
온상
조상이
필히
##스피
##니들이
##vs
##는거나
##시켜주세요
##정신차
기억하고
답답해
눈만
똥통
못버
입주
##대원
##되기를
##깔고
##풍이
사이에서
무리하게
나눠서
안나오는
##할게요
비열하고
꾸역
드세요
변명을
안마
이씨
작동
##극기
##렸던
두고두고
이념이
하지않고
뎃글
성인지
차려야
친환경
투성이
##어져
##ol
##흔들
##이나해라
선동당
웅앵웅
울부짖
삐딱
인기가
표기
##거랑
##지의
10년전
예전에는
더하네
몇억
씌우고
잇다
쪽박
##자치
##타기
경제살
들어오고
토착왜구들은
끼가
답입니다
막말이
묶어서
영공
위인
제제
치네
토요일
할거냐
##보겠다고
##탓만
##걸면
##이라는건
정치색
##운동권
##지말구
가져가
##갔다온
어딜가나
날마다
말들
의리
추억
##료는
##국도
국가도
##인이면
중국인들은
장학금을
일식집
가보자
애미애
##해져서
##개의
##제도를
##호도
##될수
세월호도
깨끗이
취업률
안쓰럽다
무슬림
복사
생떼
지라
##질이네
분열시키고
발악하는
PD
가튼
띨띨
마포
스케
요약
우겨
임원
##되겠지
##ion
부모한테
외교적으로
군대에서
억울하다
환경을
##활동을
난동
한사람이
##해졌
##어쩌
##ch
걱정마
무서웠
규명
누리는
안쓰는
않기를
주지말고
해줘야지
##시민들
현실에서
##인줄알
시원하다
43
궁리만
깍아
돕는
모래
물귀신
없는거냐
전에도
##가동
##나이다
##판으로
##따윈
##떠네
생각해요
안보임
그리워
##문제에
기회로
가니
득세
문화가
빨겡
없을거
정정
##처를
##벌을
##굽신
나라빚
인사권
196
70프로
비싸다
##버리고싶다
사법부를
둘이서
##인것처럼
##하랴
##페이
이런자가
이제그만
만들어야지
중국인을
깨갱
내말이
라임
보따리
세대가
안주면
우빨
##내놓고
사랑을
가면을
입닥치고
ㅈ도
가오
같지만
농사
수긍
이따구로
일일
일종의
투성
##유가
##박사
공개를
지껄이지
동창
밟고
##노답
##수막
아니네요
##사람한테
책임자
지키려고
아가리만
근거없는
도망가
저럴까
용기있는
남아서
악덕
줍시다
##실업
##사태가
일어나면
지옥에
개무시하고
##얼굴에
귀태
덮으려
##부글
이런짓
쓰레기로
좋아한다
베네주
넘기고
막아서
망하기
속내
애새끼
이지만
##다지
##까페
##감정이
##베이터
##친중
##200
기레기는
현정부의
구리
높은데
라니
먹이고
사골
여지가
열광
쪽빠
합심
##했었다
자격지
협박하고
두드러기
개조
당에서
업종
유부
##거면서
##엇는데
##한거죠
아베나
##지않나요
못한게
기독교가
뿌리뽑
전자개표
명명백백
ㄱㅅㄲ
괘씸
깨우
뭔짓
일벌
##할려는
##ew
##새도
##os
##는데로
사람이라
사람보다
생각된다
거기까지
현재는
상관없
자가격
신념을
신설
죄악
핵미사일
##개나
##올랐
##셨습니다
##린건
##걸음
##검사가
지금에
##해야겠네
박근혜때는
상황에서도
우한으로
개판인데
##사고가
있는거고
안달이
엑스맨
고칠
그모양
알기
돌아다녀
##지않을까
청문회는
분양가
댓가
배터리
순국
옥수수
이곳
취해
태세
하란
##하십시요
##넘을
##망덕
##😄😄
원래부터
비판은
거부하고
꽂아
드론
뭐를
완료
짓거리는
##부네
##tv
언제든지
니네들은
북괴가
우한폐렴이
내부고발
간경화
남친
뇌구조가
듯이
부관
불황
지인들
##들입니다
##일이냐
소리네
이러나
혼자만
##냐고요
가려서
깃발
드나
암담
연휴
적당
터지는
생각나는
##다니지
거짓말과
정신병자가
문정부의
##지역은
눈물을
여유가
mb
남미
낸다
뭐하자는
오사카
이찬
인근
짓는
##된지
세계일보
지지율을
나중에는
내야지
재수사
##스카
##받으며
##됐지
이건가
##지않음
지랄한다
##이러스로
위해서라면
갔나
답네
들락
세수
제도가
체결
탓하는
털어라
##반성
국민이고
본인만
지원하고
종교단체
되어있다
직원들이
놀아난
구조조정
부분을
이자슥
그립다
쪽바리가
바라지
세울
인상이
##했군
##비만
##디다
아닌걸
다니니
검사들이
엉망으로
온라인으로
그랫
말든지
베트
보답
씌우는
아저
이산
##해줘서
##뿌리
ㅋㅋ아
##해야지요
당시에
평등한
##줄알아라
본격적으로
곳도
임금을
처먹은
##볼때
##죽여야
이런저런
마음도
정상은
쪽바리들이
법인세
4천
대머리
몸매
미역
새우
안내는
피디
##라는거야
##모리
##되는거야
##측근
이딴식으로
무서운게
이념을
호주머니
우두머리
간다는
귀화
삼아
일용
파도
##소도
##날듯
##처음
10만명
어쩌려고
꼬라지하고는
재수없게
의문이
김남
달빛
불난
비자금
숙박
제사
제약
지었으면
찔끔
표적
##바에
##검색
##갔고
세금낭비
모른다는
##때문이
의무가
다주택자
갈취
나열
보았다
싶을까
외친
우대
풀어라
##야된다
##소문
이제와
없애면
공산주의를
자빠졌냐
거저
멋있다
분통
좀해라
축적
##미약
##유포
##호의
##하면되지
문재인에
돌아온
뭐냐고
##수준을
이기면
의심을
방역을
한반도의
한반도를
홍어들
꿀꺽
반민
밥줄
알간
추장관
##라구요
##의해
##개인
##중공
이런댓글
##지도록
좋아질
처벌은
공감능력
##하신분
원전을
인터넷으로
김경수는
##지도않은
수단으로
거겠지
살이
인당
코로
##도우
##현장
##예우
##처형
나라지
비싸고
##차이즈
##아닙니까
편에
희안
##좀하자
나오네요
##지않았
불쌍하네
대표적
운전자가
인터넷에서
기독교인
4월에
명확히
거시
년은
루머
많으니까
어이상실
왜저러
##박질
##빠들
일반인들
똑같은데
통일부
##떨어진다
이시기에
아부지
황대표님
##무서운
알잖아
즐겨
질서
##어이
##실은
##끝까지
얘기도
힘내서
남한은
##그래도
본보기로
샤오미
or
돈줄
뼈저
책상
핵대중
##고의
##주마
##오라고
##교를
##쓰는데
##자리에서
가해자는
이라크
열받아서
분탕질
가을
겁나서
내로
별짓
뻑하면
수산물
##했겠냐
나라들
좋은건
모습으로
영혼을
다친
빠르
선임
윗선
##하마
##불을
나라살림
마스크쓰고
조작과
여자로
##생각하는
맞는말이
한국인의
미안한
도망간
힘듭니다
##되도록
사람이야
자한당아
정숙이
데뷔
두루
불리는
용기에
이시키
후반
##추종
##햇다고
##tn
##몰아
생각하며
거짓말하는
200만원
쪽팔리
남북이
대중이
매출이
뼛속까지
소니
오신
좋긴
##될때
##정도가
처벌받
가격에
김어준이
그정도는
갔다고
때릴
빨랑
뻘갱이
없나보네
죽는게
##놈들이다
##긋네
좋은게
공무원도
눈치보느라
놓으면
두목
머하는
무정부
세웠
있겠죠
##방사
##리티
##지부
##싶네요
##투입
것이며
후보가
열받게
오랑캐
결탁
공론
무인도
믿나
비양심
안그런
우버
의인
편견
##보내는
##느껴
##지수
##났냐
##들이는
많이도
야당대표
##지말아야
##으로서의
제재를
국기
본모습
북치고
오전
##인공
##되로
##승차
##내네
언론조작
한국당도
너네들은
이명박은
대표는
주장은
고민정이
조장하고
su
ㅅㅅ
내면서
법앞에
쓰여
재용
##감소
##판국에
보여서
##프로그램
고소고발
해체하라
##틀딱들
입다물
GP
군생활
까놓고
놀구
반쪽
산책
오케이
화끈
##삼성
필요하지
청와대도
시간만
선생이
자진사퇴
오토바이
갈기갈기
옳지
조국이다
미국산
나쁘게
떠들지
말해주
쟤가
##료로
##야죠
##기들이
사람새끼
##는거에요
10일
그때가서
올라온
소득세
갔다온
51
개빡
늘리는
들여서
수면
시사
어렸
헌재
혈맹
##충들은
##자위
##오르고
국민들께
검찰개혁의
이기적
의혹은
##공산당이
통계를
##출신이
배운게
경제성장률
거리를
넘들아
다니다
되요
문빨갱이
상한
에미
챙겼
처우
##리안
##시로
##쭈쭈
저런것도
선거도
반대한
회사도
문통의
시끄럽고
가당
무척
방안
배아프
안본
잘나가
잠도
장구
제왕
##브랜드
##남도
##형제
##싸게
저런사람이
##이랑께
사고나면
분명한
이것만
빨아재
조직이
4시간
없었다면
주저
죽인다
지뢰
털어도
핵실험
필요할
아주머니
가려라
장려
##연의
아니였
언론노조
##시민이
감사하고
여기서도
안돼는
나머진
디져
이정부가
자택
중딩
##건물
##년놈들
##차기
##잡배
대통령탓
##정권과
자신과
##이란건
파악하고
나선
내어
당명
번영
쇼만
재개
척살
취향
##단으로
##될까봐
국민이라면
아이들도
해결된다
##사회에서
사라지면
수단과
쳐발
##주시고
##모아서
##탈취
20프로
누구라도
가족사기단
인생의
비교할
치매걸린
매일매일
꼰대들
넘쳐나는
얘네는
간사한
됐는지
뒈지
맹신
사필
색휘
원상
틈만
##좋다고
나랏일
66
of
게거품
관대한
구해
국력
못봤다
아줌
왠만한
주제를
##ay
##잔당
문제인가
##이었나
관련자
억울해
설명좀
인류의
어딘지
한결같이
따박따박
다카
못나오게
사치
##시까지
##회사가
##범을
##잡은
증거로
친일파로
내로남불은
엄마부대
창피한줄
김여정
갖춘
걸려라
귀막고
니놈이
다분
드라이
봐봐
엮어서
잡것들
##하를
##작가
##날은
부모에게
한국당의
문통과
망해가고
가겠다
에잇
조민이
##로다
##것나
##기각
##착오
이런사람
미국하고
국회의원으로
사라진다
비리에
자랑스럽다
불안하다
만큼은
걱정은
높여
물품
반말
벌인
신적폐
##되었으면
나라말아먹
자기네들
되었다고
다가오니
중립을
노령
뒤에는
쓰자
웃으며
편리
좌파에
잘못하고
##이었습니다
##시장은
나왔다고
되는거고
똥줄타
그기
니기미
살기가
속초
손씨
오는데
지연
한동안
훈계
남자만
지원이
아무리봐도
안전이
타령하는
서영교
듣도
속마음
신나서
쌍으로
입막
잘된
충전
피자
합쳐서
헤드
##귀에
##먹는다
##달이
##싶어서
##욕하는
##허네
이렇게나
알고는
##했던거
공공의
개고기
달콤
도살
들키
사려고
쌓여
조치가
표심
##대지말고
##울까
##글에
바쁘고
빠졌
약도
얘길
조립
표출
한거다
##님들은
비교하는
생활을
왜곡된
난도
들의
면상에
살까
살리기
속출
잔재
큰그림
학창
##고리
##고물
##하오
##맞춰
권력도
방법도
이낙연은
##하지말라고
자진해서
본사
쏘아
철퇴
##할꺼다
##부역
##야하는데
생각들
생각말고
만들었는데
달려드는
김기춘
개노릇
길러
망하길
상주
있기를
##자한테
##확보
##입에
같은편
공산당의
통계청장
인천공항
##우리나라
가증스러운
그날까지
개호
기운
##라하고
##때메
##일려고
##먹여
##었나요
불쌍해서
유시민의
빤스목사
명재권
곳간
생화학
알만한
자들을
좋겠
##계산
##놨으니
##렸음
##졋네
##뱅이
한심합니다
당연하고
이놈도
지방은
손혜원은
후손들
이영훈
배은망덕
나쁨
믿어야
생생
손주
송구
##매체
##확산
생각안하고
댓글단
세계경제
##라니깐
앉아있네
어떡해
망칠
매체
속옷
안중에
익숙
찢어버
틀닥
##라지만
##의무
##행세
##추가
##구경
##그때
자유도
자신에게
이용하지
제1저
8년
가전
빛을
신성
중이
타겟
판명
퍼진
##일쎄
##선전
##낼수
##뿐입니다
##내용이
안되어
조사하자
반대다
##지지하는
대선에
민경욱이
과속
말했는데
뭐죠
반성이
피빨
##절하게
##구에서
##입을
반대파
한국인을
철수해라
전기료
일방적인
국가보안법
ㅊㅊ
개xx
거나
빠지는
빨아먹는
이명
핵이
##실세
##맘에
100조
이럴려고
문쩝쩝이
진즉에
거니
말잘
모였네
인멸
자리는
한건지
##가르
##하소
여론몰
하는거임
전쟁터
쉴드쳐
나같아도
높다고
원하는게
이분이
찾아야
##짓도
##고로
자식에게
예전처럼
수백억
2주간
##말아먹고
돈안
믿겠다
세키
##건으로
좌파놈들
저러나
아파트가
##상태로
##지키는
빨간색
김상조
구미
대의
뼈속까지
이권
인원이
좌빠리
타워
##od
지원은
물고늘어
위장전
환영합니다
곡소리
누명
한것이
협상을
##이는거
##새꺄
비리의
##정책에
인사들
부산의
바쁘네
어마무시
가두
동생이
무제한
사시는
석렬
악어
##화도
##공정
##담을
##ck
우리랑
피해본
무능을
반박은
정치권에
강성노조
장외투쟁
콜라보
망친다
세워라
안하는거
우환
이십
짖는
##걸요
##벼락
당신과
나오겠지
알바가
부정한
##수사권
실력으로
김종민
sns에
노란리본
오거돈
과태
년아
니딸
차이는
힘있는
##5일
##안해서
##쓰면서
##넣어
##문제도
##살인마
뒈질
박고
잘했다는
텔레
해쳐
형량이
##한명
##저렇게
##촌까지
##갔어
리얼미터는
이언주의
5살
바랬
시늉
신은
예의를
이사가
크지
패고
허덕
호응
##짓하는
##했기
##하기엔
##인간은
음주운전은
여적죄
수개표
엎드려
전업
한이
##라는거지
##조아
##제외
##발전에
##들어도
어디있
어렵지
시원한
##일본당
2의
공을
들려
많아도
못읽
봤을때
이장
임은
타당
##되겠다
투표용지
의원들이
##😂😂😂😂
쌍팔년도
9급
극성
맞벌
맞는다
북은
잡으려고
##시지요
##주는건
##감증
북한보다
말고도
의사들이
말아주세요
전국에서
다녀야
자존심을
대학생들
무관심
여론조사는
남성이
문통령
병사
청원이
##총리가
경제력
자유주의
명분으로
늘려서
단물
도라
목욕
사네
썪은
##느라고
##부름
##3일
있었구나
고생많
자랑스럽게
이익에
해체해라
틀림없다
대가를
마크
살어라
신나
잊을
저넘
##터는
##소독
##율을
독재에
달라질
유튜브에서
근처에
혹세무민
그제
근친
도구로
밖에는
읽을
줄이는
짜져
##한가지
##안정
##협조
그래라
보수당
없을거다
입시비리
강남구청장
가보면
걷고
볼수록
욕밖에
정동
짓인지
##오빠
##였을
##더불어
##9년
##죽어
##하시기
남자들도
자격증
거리에
누굴까
이승만이
이넘은
더민
더심
딸내미
뜰딱
변기
불필요한
욕하는거
임용
##집구석
##타면
안되네요
##거리는거
부모들은
야당을
나서지
탈북민
포르노
가는건
명이
없앨
##에가서
##기위한
##울게
##담이
##특징
쓰레기통에
삼성의
좌좀들이
짜증나네
싸우지
여경은
조회수
Kbs
고영
배우는
법안을
불려
##차지
##촬영
택시가
틀린말은
컨트롤타워
3주
88
규칙
매각
안변
집결
##때만
##었을때
##본적이
정의고
##고있나
시작은
본인들의
임명강행
##사태를
줄어들고
바탕으로
망한다고
빙시
##있을때
##날도
##링크
다른지
##자들한테
탄핵감
평화통일
비교해
준비해라
확인도
쩝쩝쩝
저리도
어이가없다
원칙을
그딴거
국회의장
푸하하하
갈까
국공
길어
애한테
유트
있겠는가
흑백
##열에
##맞냐
##여부를
##항쟁
##늠이
잘못했으면
누구인가
못한다는
또라이가
중권아
기쁘
낮다
내국인
농민
스위
스크
이불
치지
##지난
##먹어서
##털이
삼성에
올라간
애국당
특히나
한명이라도
##해줄게
##거같냐
선수들
선심성
여편네
부관참
간병
맞다면
매몰
불상
사육
아하
열을
저지를
하질
훤히
문제죠
서울로
##만원에
보는듯
선택은
몰랐네
남한이
씨부려라
이중잣대
대께문
3선
3시간
보았
장재
천명
모양이다
달려들
이와중에도
4번
공관
축복
치마
하셔야
##리당
##주셔서
##뭔지
안되지만
정도를
이용할
##해주시길
드러났
상식도
추종자
축하한다
비용을
되든
만남
안봤으면
정해져
타다가
##막이
##하래
##불량
아니예요
자신감
때문이라고
선택이
희망사항
대박이다
##힘들다
형평성
뼈저리게
도는
멘트
세력을
쟤들이
죄파
##법이다
##주식
##개씩
##장한
##공천
기업인
재산세
타령이냐
이성적인
급이
남는다
새빨간
인질
일하는데
그럴수
거길
공군
글도
망각
빼곤
임무
적고
지룰
집요
##하는걸로
com
맞네요
부자들이
아플
얘들이
형식
##받냐
국민이냐
인간들의
##들과는
기다릴
사태의
대기업은
게임이
반박을
퍼트린
문주당
마루타
1절
거예요
리그
뺏지
악착
야외
##가해
##자격이
##유천
##불허
##00억
아닌이상
여성들
판단하고
물어봐
##것같냐
괜찬
드시고
씨레기
저의
주는건
펼쳐
##꾸역
##래스
생각만해도
지지한다는
민생은
못믿겠다
대대적으로
신종코로나
광진
모는
빤쓰
쉬세요
습격
재기
정적
찍어야
플라스틱
##세트
##17
##창이
##호를
##될때까지
미친정부
사용하고
뭔가를
노예가
가정교육
##벌레들
우롱하는
신속하게
후안무치한
사필귀
떠날
싸우면
얘긴
올림
치르
##러가
##배달
##단위
친일프레임
조용하네
지나간
저러는거
서울대생
